const unsigned char smart_env_model_tflite[] = {
  0x1c, 0x00, 0x00, 0x00, 0x54, 0x46, 0x4c, 0x33, 0x14, 0x00, 0x20, 0x00,
  0x1c, 0x00, 0x18, 0x00, 0x14, 0x00, 0x10, 0x00, 0x0c, 0x00, 0x00, 0x00,
  0x08, 0x00, 0x04, 0x00, 0x14, 0x00, 0x00, 0x00, 0x1c, 0x00, 0x00, 0x00,
  0x98, 0x00, 0x00, 0x00, 0xf0, 0x00, 0x00, 0x00, 0x60, 0x0d, 0x00, 0x00,
  0x70, 0x0d, 0x00, 0x00, 0x7c, 0x13, 0x00, 0x00, 0x03, 0x00, 0x00, 0x00,
  0x01, 0x00, 0x00, 0x00, 0x10, 0x00, 0x00, 0x00, 0x00, 0x00, 0x0a, 0x00,
  0x10, 0x00, 0x0c, 0x00, 0x08, 0x00, 0x04, 0x00, 0x0a, 0x00, 0x00, 0x00,
  0x0c, 0x00, 0x00, 0x00, 0x1c, 0x00, 0x00, 0x00, 0x3c, 0x00, 0x00, 0x00,
  0x0f, 0x00, 0x00, 0x00, 0x73, 0x65, 0x72, 0x76, 0x69, 0x6e, 0x67, 0x5f,
  0x64, 0x65, 0x66, 0x61, 0x75, 0x6c, 0x74, 0x00, 0x01, 0x00, 0x00, 0x00,
  0x04, 0x00, 0x00, 0x00, 0x90, 0xff, 0xff, 0xff, 0x0a, 0x00, 0x00, 0x00,
  0x04, 0x00, 0x00, 0x00, 0x08, 0x00, 0x00, 0x00, 0x6f, 0x75, 0x74, 0x70,
  0x75, 0x74, 0x5f, 0x30, 0x00, 0x00, 0x00, 0x00, 0x01, 0x00, 0x00, 0x00,
  0x04, 0x00, 0x00, 0x00, 0x86, 0xf2, 0xff, 0xff, 0x04, 0x00, 0x00, 0x00,
  0x0c, 0x00, 0x00, 0x00, 0x6b, 0x65, 0x72, 0x61, 0x73, 0x5f, 0x74, 0x65,
  0x6e, 0x73, 0x6f, 0x72, 0x00, 0x00, 0x00, 0x00, 0x02, 0x00, 0x00, 0x00,
  0x34, 0x00, 0x00, 0x00, 0x04, 0x00, 0x00, 0x00, 0xdc, 0xff, 0xff, 0xff,
  0x0d, 0x00, 0x00, 0x00, 0x04, 0x00, 0x00, 0x00, 0x13, 0x00, 0x00, 0x00,
  0x43, 0x4f, 0x4e, 0x56, 0x45, 0x52, 0x53, 0x49, 0x4f, 0x4e, 0x5f, 0x4d,
  0x45, 0x54, 0x41, 0x44, 0x41, 0x54, 0x41, 0x00, 0x08, 0x00, 0x0c, 0x00,
  0x08, 0x00, 0x04, 0x00, 0x08, 0x00, 0x00, 0x00, 0x0c, 0x00, 0x00, 0x00,
  0x04, 0x00, 0x00, 0x00, 0x13, 0x00, 0x00, 0x00, 0x6d, 0x69, 0x6e, 0x5f,
  0x72, 0x75, 0x6e, 0x74, 0x69, 0x6d, 0x65, 0x5f, 0x76, 0x65, 0x72, 0x73,
  0x69, 0x6f, 0x6e, 0x00, 0x0e, 0x00, 0x00, 0x00, 0x6c, 0x0c, 0x00, 0x00,
  0x64, 0x0c, 0x00, 0x00, 0x14, 0x0c, 0x00, 0x00, 0xf4, 0x0b, 0x00, 0x00,
  0xe4, 0x0a, 0x00, 0x00, 0xd4, 0x02, 0x00, 0x00, 0x44, 0x01, 0x00, 0x00,
  0xb4, 0x00, 0x00, 0x00, 0xac, 0x00, 0x00, 0x00, 0xa4, 0x00, 0x00, 0x00,
  0x9c, 0x00, 0x00, 0x00, 0x94, 0x00, 0x00, 0x00, 0x74, 0x00, 0x00, 0x00,
  0x04, 0x00, 0x00, 0x00, 0x3a, 0xf3, 0xff, 0xff, 0x04, 0x00, 0x00, 0x00,
  0x60, 0x00, 0x00, 0x00, 0x0c, 0x00, 0x00, 0x00, 0x08, 0x00, 0x0e, 0x00,
  0x08, 0x00, 0x04, 0x00, 0x08, 0x00, 0x00, 0x00, 0x10, 0x00, 0x00, 0x00,
  0x28, 0x00, 0x00, 0x00, 0x00, 0x00, 0x06, 0x00, 0x08, 0x00, 0x04, 0x00,
  0x06, 0x00, 0x00, 0x00, 0x04, 0x00, 0x00, 0x00, 0x01, 0x00, 0x00, 0x00,
  0xea, 0x03, 0x00, 0x00, 0x0c, 0x00, 0x18, 0x00, 0x14, 0x00, 0x10, 0x00,
  0x0c, 0x00, 0x04, 0x00, 0x0c, 0x00, 0x00, 0x00, 0x95, 0x3e, 0xc9, 0x35,
  0x38, 0x62, 0x1d, 0x37, 0x02, 0x00, 0x00, 0x00, 0x02, 0x00, 0x00, 0x00,
  0x04, 0x00, 0x00, 0x00, 0x06, 0x00, 0x00, 0x00, 0x32, 0x2e, 0x32, 0x31,
  0x2e, 0x30, 0x00, 0x00, 0xa6, 0xf3, 0xff, 0xff, 0x04, 0x00, 0x00, 0x00,
  0x10, 0x00, 0x00, 0x00, 0x31, 0x2e, 0x35, 0x2e, 0x30, 0x00, 0x00, 0x00,
  0x00, 0x00, 0x00, 0x00, 0x00, 0x00, 0x00, 0x00, 0x64, 0xee, 0xff, 0xff,
  0x68, 0xee, 0xff, 0xff, 0x6c, 0xee, 0xff, 0xff, 0x70, 0xee, 0xff, 0xff,
  0xd2, 0xf3, 0xff, 0xff, 0x04, 0x00, 0x00, 0x00, 0x80, 0x00, 0x00, 0x00,
  0x9d, 0x87, 0x3f, 0x3d, 0x8b, 0x27, 0xc2, 0xbe, 0xb3, 0xe3, 0x88, 0x3e,
  0x9a, 0x0f, 0x5f, 0x3e, 0x1c, 0xaa, 0xd7, 0xbe, 0xcf, 0xed, 0x4d, 0xbd,
  0xef, 0xeb, 0xe6, 0x3e, 0x00, 0x00, 0x00, 0x00, 0xb0, 0xe5, 0xe8, 0xbe,
  0xe2, 0x0a, 0xae, 0x3e, 0x9f, 0xc3, 0xd7, 0xbe, 0x00, 0x00, 0x00, 0x00,
  0x00, 0x00, 0x00, 0x00, 0xf1, 0x56, 0xe5, 0x3d, 0xb4, 0x61, 0x17, 0x3f,
  0x15, 0x46, 0x6d, 0x3e, 0x56, 0x6e, 0xc7, 0x3d, 0x00, 0x00, 0x00, 0x00,
  0x23, 0x89, 0xf0, 0x3e, 0x66, 0x3e, 0xd7, 0x3d, 0xf3, 0x85, 0x8d, 0xbe,
  0xa2, 0x23, 0xbf, 0xbd, 0x00, 0x00, 0x00, 0x00, 0x43, 0x6b, 0xbe, 0x39,
  0x5c, 0xf9, 0x55, 0xbd, 0x00, 0x00, 0x00, 0x00, 0x00, 0x00, 0x00, 0x00,
  0xeb, 0xf0, 0x8c, 0xbd, 0x56, 0x07, 0xef, 0x3e, 0xab, 0xe7, 0x02, 0x3f,
  0x00, 0x00, 0x00, 0x00, 0xa4, 0x5a, 0xba, 0xbc, 0x5e, 0xf4, 0xff, 0xff,
  0x04, 0x00, 0x00, 0x00, 0x80, 0x01, 0x00, 0x00, 0x19, 0x27, 0x43, 0x3e,
  0x04, 0xe3, 0x40, 0x3e, 0xe6, 0xc6, 0xf2, 0x3e, 0xb4, 0x81, 0x1e, 0x3f,
  0xbb, 0x97, 0xd0, 0x3e, 0x19, 0xca, 0x1f, 0xbe, 0x33, 0x57, 0x6f, 0xbe,
  0x90, 0x14, 0xd0, 0x3d, 0x01, 0xc1, 0x2c, 0xbf, 0xed, 0xd7, 0x83, 0x3e,
  0x5a, 0x86, 0x36, 0x3f, 0x37, 0x9c, 0x57, 0x3e, 0x70, 0x01, 0xc0, 0x3e,
  0x75, 0x3b, 0x03, 0x3f, 0xd3, 0xaf, 0x41, 0x3e, 0x00, 0x6b, 0x31, 0x3f,
  0x6f, 0x27, 0x06, 0x3e, 0xbd, 0xe6, 0x3c, 0x3f, 0x01, 0x43, 0x8a, 0xbe,
  0xfb, 0x0f, 0x8a, 0x3d, 0xee, 0x55, 0x91, 0x3e, 0xe6, 0xd3, 0x06, 0xbe,
  0xd0, 0xad, 0xc4, 0xbe, 0xe8, 0xb7, 0x30, 0xbd, 0x1c, 0x25, 0x24, 0x3f,
  0x16, 0x9f, 0x8d, 0x3e, 0x67, 0x62, 0x6d, 0xbd, 0x11, 0x34, 0xef, 0x3e,
  0xa3, 0xc7, 0xf4, 0xbe, 0xea, 0xd2, 0x19, 0x3f, 0x73, 0x2a, 0x3a, 0x3f,
  0x64, 0x35, 0xc1, 0x3e, 0xdc, 0x25, 0x8a, 0x3e, 0x20, 0xd4, 0xa7, 0xbe,
  0x5a, 0x1e, 0x1b, 0x3e, 0x0a, 0x21, 0x9e, 0xbe, 0x68, 0x2c, 0x24, 0xbd,
  0xf0, 0xda, 0x0f, 0xbe, 0x00, 0x2b, 0x22, 0xbd, 0x35, 0x3c, 0x30, 0x3f,
  0x93, 0x3c, 0x05, 0xbf, 0xae, 0xa7, 0xec, 0xbd, 0x14, 0xda, 0xf9, 0xbe,
  0x68, 0x51, 0x6c, 0x3e, 0xc9, 0x79, 0x6c, 0xbe, 0x10, 0xb1, 0x7a, 0x3e,
  0xad, 0xb0, 0x35, 0xbe, 0x1d, 0xd7, 0x12, 0x3f, 0x61, 0x04, 0x1f, 0x3f,
  0x7d, 0x93, 0x61, 0x3d, 0x1e, 0x47, 0xfd, 0xbe, 0x1a, 0xe3, 0xad, 0xbe,
  0xde, 0xb9, 0xa6, 0xbe, 0x92, 0x0f, 0xa2, 0xbe, 0xe8, 0xba, 0x9c, 0xbe,
  0x32, 0x24, 0x8c, 0x3e, 0x24, 0xe2, 0x72, 0xbf, 0xf2, 0xbb, 0xc9, 0x3e,
  0x7c, 0xd4, 0x63, 0x3d, 0x79, 0x0b, 0xc7, 0xbe, 0x99, 0x40, 0xb0, 0x3e,
  0x1a, 0xb3, 0x39, 0x3f, 0x1e, 0x21, 0xf5, 0xbe, 0xb7, 0xc2, 0xb3, 0x3e,
  0x43, 0xe2, 0x47, 0x3f, 0x62, 0x5f, 0x65, 0x3f, 0xb0, 0xde, 0x8f, 0xbe,
  0x5c, 0x22, 0xd8, 0x3d, 0x4c, 0xb7, 0x7b, 0xbe, 0xd9, 0x03, 0xc4, 0x3e,
  0x04, 0xba, 0xbd, 0x3e, 0x24, 0xb1, 0xff, 0xbe, 0x6c, 0x3e, 0xb6, 0x3d,
  0xc6, 0x65, 0xb0, 0x3e, 0x9c, 0x07, 0x95, 0xbe, 0xd2, 0xf4, 0x97, 0xbe,
  0x6f, 0x22, 0x9b, 0xbe, 0x38, 0x63, 0xc8, 0xbd, 0x50, 0x92, 0x1c, 0x3d,
  0xa4, 0x55, 0x2a, 0xbe, 0x51, 0x35, 0x69, 0xbe, 0xf5, 0xeb, 0x0b, 0x3f,
  0x5f, 0x28, 0xc3, 0x3e, 0x42, 0x33, 0x13, 0x3f, 0xb6, 0x97, 0xcd, 0x3e,
  0x11, 0xc3, 0xd8, 0xbe, 0xbd, 0x5e, 0xea, 0xbe, 0x8b, 0xfa, 0x04, 0xbf,
  0x09, 0x31, 0x7a, 0x3e, 0x50, 0xb3, 0x13, 0xbe, 0x96, 0x61, 0x05, 0x3e,
  0x30, 0x1c, 0x97, 0xbe, 0x47, 0x86, 0xca, 0xbe, 0xac, 0xb4, 0xaa, 0xbe,
  0x0a, 0x6e, 0x0b, 0x3e, 0xec, 0x98, 0x80, 0x3d, 0xea, 0xf5, 0xff, 0xff,
  0x04, 0x00, 0x00, 0x00, 0x00, 0x08, 0x00, 0x00, 0xfa, 0x4f, 0x6c, 0x3d,
  0x9c, 0x7f, 0xbb, 0xbd, 0x95, 0xf9, 0x3c, 0x3f, 0xd4, 0xa4, 0xb1, 0x3e,
  0x4e, 0x79, 0xec, 0xbd, 0xfc, 0xa9, 0xf3, 0xbd, 0x25, 0x0f, 0xe1, 0x3c,
  0x00, 0xc8, 0xb5, 0xba, 0xb3, 0x7c, 0x47, 0xbf, 0x82, 0x1b, 0xa0, 0x3e,
  0x5f, 0xe6, 0x99, 0xbd, 0x8b, 0x33, 0x2a, 0xbe, 0x9b, 0x70, 0x07, 0xbe,
  0x2a, 0x26, 0xb1, 0x3c, 0x50, 0x27, 0x7a, 0x3f, 0x57, 0x40, 0x1b, 0xbd,
  0x95, 0x41, 0xff, 0x3e, 0xab, 0xfb, 0x5a, 0xbe, 0xe7, 0x87, 0x1c, 0x3f,
  0xd3, 0xa3, 0x96, 0x3d, 0xef, 0x68, 0x8d, 0xbd, 0x3b, 0xaf, 0xef, 0xbe,
  0x80, 0x9b, 0xf0, 0xbd, 0xc6, 0x21, 0xfe, 0x3e, 0xab, 0x5d, 0xaf, 0x3d,
  0x88, 0xf0, 0x0a, 0xbd, 0x98, 0x05, 0x3d, 0xbe, 0x17, 0xc2, 0x21, 0xbe,
  0x03, 0x7d, 0x44, 0x3f, 0xe7, 0x50, 0x2a, 0x3f, 0x64, 0x0a, 0x86, 0xbd,
  0x55, 0xe5, 0x1a, 0xbd, 0x66, 0xb6, 0x88, 0xbe, 0x01, 0xd5, 0x82, 0x3e,
  0xea, 0x31, 0x20, 0x3f, 0xc8, 0x68, 0x2a, 0x3e, 0x37, 0x69, 0xcf, 0x3e,
  0x8c, 0xb6, 0x29, 0xbd, 0x40, 0xe6, 0xaa, 0xbe, 0xf4, 0x5f, 0xa3, 0xbd,
  0x66, 0xc5, 0x2a, 0x3f, 0x56, 0x29, 0xdf, 0xbc, 0x31, 0x41, 0x10, 0x3f,
  0x58, 0x65, 0x40, 0x3d, 0x64, 0x81, 0x26, 0xbe, 0x3c, 0xb3, 0x28, 0x3e,
  0x39, 0xfe, 0xc1, 0xbe, 0xc9, 0xc5, 0xcb, 0xbe, 0xe9, 0x79, 0x0c, 0x3f,
  0x00, 0x5f, 0x8b, 0xbc, 0xdb, 0x74, 0x05, 0x3f, 0x0b, 0x71, 0x08, 0x3f,
  0xf6, 0x7c, 0x0c, 0x3f, 0xc5, 0xd6, 0xa1, 0x3e, 0xe0, 0xf9, 0x91, 0x3c,
  0xdd, 0x3f, 0x27, 0x3f, 0x9f, 0xfc, 0x23, 0x3e, 0x98, 0xe0, 0x13, 0x3e,
  0x7e, 0xb2, 0x5d, 0x3e, 0xe2, 0xe5, 0x26, 0x3e, 0x66, 0xdf, 0x9c, 0xbd,
  0x03, 0x63, 0x21, 0xbf, 0xd4, 0x6a, 0xed, 0x3d, 0x4f, 0x38, 0x9f, 0xbd,
  0x96, 0xbd, 0xa7, 0x3e, 0x5f, 0xce, 0x20, 0x3f, 0x74, 0x45, 0x02, 0x3e,
  0x07, 0x38, 0xdb, 0xbc, 0xed, 0x01, 0x3b, 0x3f, 0x38, 0x11, 0x0c, 0x3e,
  0xdb, 0xce, 0x44, 0xbe, 0x2c, 0xba, 0x88, 0xbe, 0x96, 0x1b, 0x1a, 0x3f,
  0xb1, 0xe4, 0x89, 0xbe, 0xc4, 0x40, 0x1b, 0x3f, 0x33, 0xb4, 0xa7, 0xbe,
  0x5b, 0xc0, 0x87, 0x3e, 0xe6, 0x99, 0xf5, 0xbd, 0x56, 0x94, 0x4d, 0xbf,
  0xcb, 0x71, 0xc3, 0xbe, 0x0f, 0x82, 0xb3, 0x3d, 0x64, 0x92, 0x89, 0xbe,
  0x3a, 0x50, 0x9b, 0xbc, 0x3f, 0x5e, 0xa7, 0x3e, 0xe6, 0x93, 0x42, 0x3f,
  0x1a, 0x34, 0xea, 0x3e, 0xe0, 0x44, 0x62, 0xbd, 0x56, 0x32, 0xe1, 0x3e,
  0xef, 0xb5, 0x51, 0x3e, 0xe3, 0x20, 0x86, 0x3e, 0x40, 0x98, 0x06, 0xbd,
  0xd2, 0x00, 0x78, 0xbd, 0xb1, 0xaa, 0xc6, 0xbe, 0xa5, 0xf8, 0x48, 0xbf,
  0xc5, 0x77, 0x1f, 0xbe, 0x61, 0x80, 0x3a, 0x3e, 0x4d, 0x1e, 0x87, 0xbe,
  0x36, 0xbf, 0x20, 0xbe, 0xeb, 0x95, 0x0c, 0x3f, 0xb5, 0x5f, 0x22, 0xbe,
  0x49, 0x5e, 0x1c, 0xbf, 0xfc, 0x45, 0x0c, 0x3e, 0x65, 0x9a, 0xc6, 0x3e,
  0x14, 0xac, 0x82, 0x3d, 0xe1, 0x85, 0xf5, 0xbd, 0x1d, 0x1d, 0x05, 0x3f,
  0xc6, 0x27, 0xc0, 0xbe, 0x00, 0xf4, 0x69, 0xbb, 0xa1, 0x9e, 0x9a, 0x3e,
  0x6d, 0x59, 0x6d, 0x3f, 0x5c, 0x77, 0x4d, 0x3f, 0x74, 0x42, 0x85, 0xbd,
  0xad, 0x9f, 0x05, 0x3d, 0xa6, 0x6a, 0x90, 0xbe, 0x5c, 0x73, 0x13, 0x3f,
  0x6e, 0xfa, 0xf9, 0x3e, 0xc9, 0xee, 0xab, 0xbe, 0xf3, 0x70, 0x18, 0xbd,
  0x00, 0x48, 0x8e, 0xbd, 0xa3, 0xbb, 0x46, 0xbe, 0x64, 0x6d, 0x8e, 0xbd,
  0xb9, 0x95, 0x9d, 0xbe, 0xbf, 0x51, 0xa9, 0x3e, 0x15, 0xbd, 0x79, 0xbd,
  0x60, 0xde, 0x90, 0x3f, 0x70, 0x3d, 0xe9, 0x3e, 0x34, 0xa2, 0x8d, 0xbe,
  0x2c, 0x06, 0xa0, 0x3d, 0xfb, 0x7f, 0x2b, 0xbd, 0x83, 0x81, 0x17, 0x3f,
  0xbd, 0x4e, 0x32, 0xbf, 0x7e, 0x11, 0x37, 0x3e, 0x62, 0xe0, 0xbe, 0x3e,
  0xdf, 0x58, 0xea, 0x3d, 0x9a, 0xf8, 0x0a, 0xbe, 0x93, 0xed, 0x8b, 0x3e,
  0x05, 0xcd, 0xd7, 0x3e, 0xfd, 0xbd, 0x07, 0x3f, 0xc1, 0x74, 0x0c, 0x3f,
  0xcd, 0xec, 0xa6, 0x3e, 0x4c, 0x63, 0xc2, 0x3d, 0xe7, 0xe0, 0x6c, 0x3f,
  0x7f, 0x69, 0x50, 0xbf, 0x06, 0xcb, 0xc3, 0x3e, 0xf9, 0x55, 0xff, 0x3e,
  0xbc, 0x71, 0xf0, 0xbd, 0x46, 0xc2, 0x42, 0xbf, 0x97, 0x8e, 0x9a, 0x3d,
  0x26, 0xe6, 0xb5, 0x3d, 0xdb, 0xdc, 0xba, 0x3e, 0xc0, 0xea, 0x63, 0x3d,
  0x7f, 0xb8, 0xbc, 0x3d, 0x70, 0xbc, 0x98, 0xbe, 0xa7, 0x08, 0x54, 0xbe,
  0x28, 0x7c, 0x9c, 0x3d, 0xf6, 0x0f, 0x06, 0x3f, 0xe9, 0x26, 0xa3, 0x3d,
  0x84, 0xcd, 0x75, 0xbf, 0xa0, 0xa5, 0x56, 0xbd, 0xa4, 0xf0, 0xa7, 0x3d,
  0xb5, 0x63, 0xdc, 0xbe, 0x45, 0xe7, 0x03, 0x3f, 0xa2, 0xa6, 0x52, 0x3f,
  0xf8, 0x99, 0x73, 0x3e, 0xfc, 0x55, 0x2f, 0x3e, 0xee, 0x2d, 0xb9, 0x3d,
  0x0e, 0x51, 0x17, 0x3e, 0xed, 0xe5, 0x83, 0x3e, 0xc0, 0x22, 0x80, 0x3e,
  0x84, 0x05, 0x5d, 0xbe, 0x2b, 0xde, 0x8d, 0xbe, 0x96, 0xee, 0x27, 0x3e,
  0x48, 0xbf, 0x05, 0xbe, 0xbc, 0xa8, 0x83, 0xbe, 0xdd, 0xad, 0x82, 0x3e,
  0x37, 0x95, 0x61, 0xbd, 0xd3, 0xbd, 0x65, 0x3e, 0xd8, 0x16, 0x27, 0xbd,
  0xd8, 0x8b, 0x14, 0x3f, 0xf1, 0x28, 0xc0, 0x3e, 0x15, 0x3c, 0xdb, 0x3e,
  0xf6, 0x5f, 0x20, 0xbe, 0xb0, 0xac, 0xb4, 0xbd, 0x7b, 0x71, 0x57, 0x3e,
  0xb5, 0x56, 0x2e, 0x3f, 0xa8, 0x11, 0x9c, 0xbd, 0xbe, 0x05, 0x45, 0x3e,
  0xbb, 0xe6, 0x04, 0x3e, 0xb9, 0x72, 0x1e, 0xbd, 0xde, 0xa1, 0x06, 0x3f,
  0xa5, 0x46, 0x85, 0x3e, 0x91, 0x32, 0xcb, 0xbd, 0x3e, 0x12, 0x0f, 0xbf,
  0x8e, 0x3b, 0x51, 0xbe, 0xdd, 0x8c, 0x5f, 0x3f, 0x62, 0xb7, 0xe0, 0xbd,
  0xc3, 0x32, 0x1c, 0xbf, 0x89, 0x99, 0x5c, 0xbe, 0xfd, 0x23, 0x41, 0x3b,
  0x89, 0x4a, 0x3d, 0xbe, 0xd6, 0xeb, 0xa0, 0xbe, 0xdc, 0x9a, 0x14, 0xbf,
  0x1a, 0x77, 0xf0, 0xbd, 0xc0, 0x90, 0xe0, 0x3d, 0xf0, 0xed, 0x56, 0x3d,
  0xb4, 0x61, 0x04, 0x3f, 0xc8, 0x46, 0x2c, 0x3f, 0xc4, 0xdc, 0x7f, 0xbe,
  0x5e, 0x66, 0x8c, 0x3d, 0x37, 0xe5, 0x84, 0x3e, 0xe4, 0x00, 0x83, 0x3f,
  0xb4, 0x1b, 0xa7, 0x3e, 0x4a, 0x9a, 0xb8, 0x3e, 0xfc, 0x30, 0xa4, 0xbc,
  0x6a, 0xd3, 0xb1, 0xbe, 0x02, 0x81, 0xd4, 0x3d, 0x15, 0x1c, 0x4a, 0xbd,
  0x10, 0xb4, 0xcb, 0x3d, 0x6d, 0x2c, 0x9e, 0x3e, 0xad, 0xe4, 0x60, 0xbe,
  0x5d, 0x2d, 0x3d, 0x3f, 0x1b, 0x6a, 0xee, 0x3e, 0x1c, 0x65, 0x1d, 0xbe,
  0x1f, 0x6f, 0xca, 0xbc, 0x6e, 0x22, 0x23, 0x3e, 0x8e, 0x87, 0x75, 0x3e,
  0xce, 0x69, 0xb4, 0xbe, 0x8a, 0x32, 0x42, 0x3e, 0x0a, 0x38, 0x6b, 0xbe,
  0xc5, 0x23, 0x9f, 0xbe, 0x00, 0x8b, 0x57, 0x3d, 0x3e, 0x19, 0x7c, 0x3e,
  0xdc, 0x56, 0xa1, 0xbd, 0xc2, 0x32, 0x4f, 0x3e, 0xd0, 0xc7, 0xc6, 0x3c,
  0x1b, 0x23, 0x96, 0x3e, 0x02, 0x8b, 0x2e, 0x3e, 0x73, 0xa7, 0x9a, 0xbe,
  0xf2, 0x2c, 0xa6, 0xbe, 0xe0, 0x99, 0x8b, 0xbc, 0x66, 0x9d, 0x29, 0x3e,
  0xd4, 0x33, 0xa7, 0x3d, 0x72, 0x33, 0x66, 0x3e, 0xec, 0xf8, 0x8a, 0xbd,
  0x1f, 0xe9, 0xa9, 0x3e, 0x80, 0xb8, 0x6e, 0xbe, 0xa0, 0x6a, 0x52, 0xbc,
  0xc4, 0xa3, 0x23, 0xbe, 0x7f, 0xec, 0x58, 0xbe, 0x30, 0xf5, 0x76, 0x3d,
  0xe8, 0x73, 0xf3, 0xbd, 0x5c, 0xa6, 0x8f, 0xbe, 0xe7, 0x38, 0x5a, 0xbe,
  0x80, 0xd9, 0x91, 0xbe, 0xb0, 0xa7, 0x11, 0xbd, 0x00, 0xfc, 0xca, 0x3a,
  0x52, 0x55, 0x30, 0xbd, 0x6d, 0x3e, 0x63, 0x3f, 0xdd, 0x9e, 0x08, 0xbf,
  0x47, 0x85, 0x8d, 0x3e, 0xcd, 0xc5, 0x49, 0x3f, 0x36, 0x26, 0x85, 0x3e,
  0x52, 0xb8, 0xca, 0xbe, 0xfb, 0x5c, 0xae, 0x3e, 0xd7, 0xc7, 0x80, 0x3f,
  0xd7, 0xac, 0x7c, 0xbe, 0x0f, 0xf8, 0x5f, 0x3e, 0xb0, 0x66, 0xde, 0x3d,
  0x33, 0xfa, 0x99, 0x3e, 0x38, 0xa1, 0x5e, 0x3e, 0xd4, 0x3c, 0x6e, 0xbf,
  0x23, 0x02, 0xc2, 0xbd, 0xf0, 0x2d, 0xe4, 0x3d, 0x74, 0xb5, 0x69, 0xbe,
  0x8a, 0xb2, 0x24, 0xbf, 0xbf, 0xf8, 0x12, 0xbd, 0x78, 0xb8, 0x15, 0x3f,
  0xfa, 0x87, 0xf1, 0x3e, 0x20, 0xf5, 0x84, 0x3c, 0x23, 0x6d, 0xfe, 0x3e,
  0xb2, 0xd0, 0x8c, 0x3e, 0x41, 0x3e, 0xa9, 0xbe, 0x80, 0x7d, 0x95, 0xbc,
  0x5a, 0x99, 0x9e, 0x3e, 0x3a, 0x4f, 0x91, 0xbe, 0xb7, 0x09, 0x8b, 0xbf,
  0xc3, 0x84, 0xa2, 0x3e, 0x68, 0x3a, 0xbd, 0xbe, 0xa7, 0x61, 0x0a, 0x3f,
  0x2a, 0xb5, 0xcd, 0xbe, 0x83, 0x66, 0xef, 0xbe, 0x3d, 0x7b, 0x26, 0x3e,
  0xbc, 0x84, 0x3a, 0x3e, 0x8d, 0xaa, 0xb6, 0x3e, 0x7d, 0x54, 0xa0, 0x3e,
  0x98, 0x4e, 0x9e, 0xbd, 0x1b, 0x37, 0x0e, 0xbf, 0x64, 0x5e, 0x2a, 0x3f,
  0x87, 0x3d, 0xb3, 0xbd, 0x78, 0xdf, 0xa7, 0x3d, 0xb8, 0x31, 0xb8, 0xbd,
  0x11, 0x94, 0xed, 0xbe, 0xe0, 0xf0, 0x45, 0x3d, 0x05, 0x29, 0xbf, 0x3d,
  0x3c, 0x96, 0x04, 0xbe, 0xf0, 0xd0, 0x85, 0xbe, 0x89, 0xd4, 0xef, 0xbe,
  0x74, 0x3b, 0x97, 0xbe, 0x4a, 0x93, 0x62, 0xbe, 0x8e, 0x26, 0x11, 0x3f,
  0xa1, 0xdc, 0xae, 0x3e, 0x51, 0xaa, 0xea, 0xbe, 0xba, 0x29, 0x64, 0xbe,
  0xf0, 0x57, 0xbe, 0x3c, 0x00, 0x89, 0x19, 0x3b, 0x5e, 0xf6, 0xbb, 0x3d,
  0xfa, 0x53, 0x0f, 0xbf, 0x4d, 0x0f, 0xb1, 0x3e, 0x03, 0xbd, 0x88, 0xbe,
  0x9e, 0x5c, 0xf6, 0x3c, 0x03, 0x04, 0x98, 0x3e, 0xa2, 0xe8, 0x9a, 0xbe,
  0xb0, 0x52, 0x5b, 0xbf, 0x45, 0x83, 0x00, 0x3e, 0xd3, 0xb1, 0xd6, 0x3b,
  0xbc, 0xba, 0xf7, 0x3e, 0x3a, 0xf8, 0xa5, 0x3e, 0x66, 0x7d, 0x54, 0x3e,
  0x12, 0xf3, 0x2a, 0xbf, 0x21, 0x69, 0x4a, 0x3c, 0x6c, 0x6f, 0x96, 0x3e,
  0xb5, 0x6b, 0xb4, 0xbe, 0x83, 0x36, 0x31, 0xbe, 0x12, 0xda, 0x50, 0xbe,
  0x9b, 0x8a, 0x15, 0x3e, 0x86, 0x39, 0x0a, 0x3f, 0x16, 0xb9, 0xce, 0xbe,
  0x14, 0x5a, 0x22, 0xbe, 0x77, 0x81, 0xe8, 0xbe, 0x0c, 0x4e, 0x9d, 0xbe,
  0x17, 0xa7, 0xce, 0xbd, 0xf8, 0xdd, 0xdf, 0x3e, 0x54, 0xea, 0xb8, 0x3d,
  0xcb, 0x41, 0x14, 0xbe, 0xda, 0x3e, 0x96, 0xbe, 0x46, 0x27, 0x74, 0x3e,
  0xf0, 0x76, 0x6e, 0xbe, 0x3f, 0xd5, 0x16, 0x3f, 0xf4, 0x6b, 0xe9, 0xbe,
  0xb4, 0x80, 0x8a, 0x3e, 0xa0, 0x78, 0xf0, 0x3d, 0x51, 0xb1, 0x88, 0xbe,
  0x1c, 0x0f, 0xac, 0xbe, 0xab, 0xc0, 0x29, 0xbd, 0x23, 0x60, 0x78, 0x3e,
  0x87, 0x5a, 0xfa, 0x3e, 0x6c, 0x36, 0x53, 0xbe, 0x72, 0xab, 0x66, 0xbe,
  0x57, 0x95, 0xfe, 0x3e, 0x41, 0x98, 0x8a, 0x3e, 0x46, 0x00, 0x9c, 0xbe,
  0x3e, 0x23, 0x0c, 0xbf, 0x14, 0x4a, 0xa1, 0xbd, 0x96, 0x0c, 0x31, 0x3e,
  0x81, 0xfc, 0xab, 0x3e, 0x07, 0xe1, 0x44, 0xbf, 0xd8, 0xb2, 0x17, 0x3f,
  0x85, 0x43, 0xa9, 0x3d, 0xd2, 0xef, 0x64, 0x3e, 0x52, 0x78, 0x67, 0x3e,
  0x52, 0x50, 0x7a, 0x3f, 0x3c, 0x55, 0x8c, 0xbd, 0x26, 0xd5, 0xc3, 0x3e,
  0xc1, 0x23, 0x9e, 0x3e, 0xc4, 0x28, 0x71, 0xbe, 0xcb, 0x8c, 0xf8, 0x3d,
  0xe7, 0xdf, 0xd9, 0x3e, 0xe0, 0xcf, 0x46, 0xbd, 0x26, 0x05, 0x68, 0x3e,
  0xa5, 0x2f, 0x9d, 0x3e, 0x9f, 0x14, 0xb9, 0xbe, 0x04, 0x85, 0x74, 0x3f,
  0x00, 0x6f, 0x76, 0x3c, 0x65, 0xdb, 0xa8, 0x3d, 0xb3, 0x5d, 0x5a, 0x3e,
  0xe5, 0x24, 0x58, 0x3f, 0xe9, 0x2d, 0xa6, 0xbe, 0xab, 0xbd, 0x90, 0x3b,
  0xd5, 0x31, 0x12, 0x3f, 0xaa, 0x23, 0xc8, 0x3e, 0x19, 0xb5, 0x29, 0xbf,
  0xce, 0x9d, 0x81, 0xbe, 0x0d, 0x27, 0x42, 0x3f, 0xce, 0xb9, 0x8a, 0x3d,
  0x64, 0x44, 0x21, 0x3f, 0x70, 0x6e, 0x68, 0xbe, 0x48, 0xda, 0x6a, 0xbe,
  0x8d, 0x74, 0x09, 0x3f, 0xa8, 0x14, 0x69, 0xbf, 0x65, 0x67, 0x84, 0x3e,
  0xe8, 0x75, 0x25, 0x3f, 0x6a, 0xfe, 0x23, 0x3e, 0xd5, 0x47, 0x4f, 0xbf,
  0x7d, 0x69, 0x21, 0x3f, 0x4a, 0x41, 0x5d, 0x3d, 0x80, 0x88, 0x08, 0xbe,
  0x49, 0x2d, 0x3c, 0xbe, 0x9b, 0xd2, 0x01, 0x3e, 0x65, 0xff, 0xab, 0x3e,
  0xbc, 0x34, 0xae, 0xbd, 0xdc, 0x51, 0x33, 0xbe, 0x08, 0x3e, 0xe9, 0xbc,
  0x87, 0xf1, 0x7f, 0x3d, 0xff, 0x2a, 0x3e, 0xbf, 0x7b, 0x4c, 0x97, 0xbe,
  0xbe, 0x1b, 0x9e, 0xbe, 0x30, 0x93, 0xfa, 0x3e, 0xeb, 0x1d, 0x30, 0x3e,
  0x36, 0xf0, 0x6f, 0xbf, 0x86, 0xc2, 0xbf, 0x3e, 0x55, 0x24, 0xd1, 0x3e,
  0xf2, 0xaf, 0x4b, 0x3f, 0xf6, 0x85, 0x62, 0x3e, 0xad, 0xad, 0x93, 0x3e,
  0xcf, 0x53, 0xb8, 0x3e, 0x86, 0x2a, 0x3e, 0x3f, 0x1e, 0xdf, 0x39, 0x3f,
  0x80, 0xf5, 0x54, 0xbd, 0x28, 0x21, 0x72, 0xbe, 0xb7, 0xc3, 0xb2, 0x3e,
  0x84, 0x6f, 0x4a, 0xbf, 0x1e, 0x20, 0x0e, 0x3f, 0x55, 0xae, 0x78, 0xbe,
  0xfa, 0x59, 0x2c, 0x3e, 0x93, 0x23, 0xca, 0xbe, 0xe5, 0x65, 0x48, 0xbe,
  0x77, 0x06, 0xc9, 0xbc, 0xaf, 0x68, 0x84, 0x3e, 0x80, 0x27, 0x18, 0x3b,
  0x25, 0x3a, 0xdf, 0xbe, 0x93, 0x1e, 0x24, 0x3d, 0xb6, 0xc3, 0x9a, 0xbe,
  0xe8, 0x79, 0x68, 0x3d, 0xf3, 0x51, 0x35, 0x3f, 0x67, 0xdb, 0x64, 0xbe,
  0xe2, 0x24, 0x38, 0xbf, 0x7f, 0x99, 0x0d, 0xbe, 0xe6, 0xa3, 0xe9, 0xbc,
  0xc1, 0xdf, 0x77, 0x3e, 0x91, 0xf9, 0x54, 0xbf, 0x92, 0x73, 0x6d, 0x3e,
  0x52, 0x2b, 0xf1, 0x3d, 0x2d, 0xa0, 0xba, 0xbe, 0x13, 0x47, 0x93, 0xbe,
  0x36, 0xe2, 0x29, 0x3f, 0x7a, 0x08, 0x3c, 0x3e, 0x8d, 0xf9, 0x87, 0xbf,
  0xba, 0xa6, 0xdb, 0xbc, 0x69, 0x6e, 0xd2, 0xbe, 0x96, 0xd5, 0xdc, 0xbd,
  0x98, 0x7a, 0xc5, 0xbd, 0xeb, 0x0f, 0xc5, 0xbd, 0x0d, 0x1a, 0xb1, 0x3f,
  0x4b, 0x4e, 0x9b, 0x3e, 0x5a, 0x1b, 0x39, 0xbd, 0x98, 0x14, 0x9b, 0x3d,
  0xa3, 0xd5, 0x1a, 0x3f, 0xa7, 0x90, 0x65, 0x3e, 0x79, 0x43, 0x84, 0xbe,
  0xd4, 0xad, 0x89, 0x3e, 0x75, 0x78, 0x86, 0x3e, 0xd2, 0x0b, 0xed, 0x39,
  0xe9, 0xfa, 0x14, 0xbe, 0x18, 0xa1, 0x93, 0x3d, 0xd0, 0x52, 0xd4, 0xbd,
  0x88, 0x45, 0x89, 0xbe, 0xa6, 0x0c, 0xa3, 0x3e, 0x3e, 0xb8, 0x86, 0x3f,
  0xb4, 0xfb, 0xb4, 0xbe, 0xa8, 0xb3, 0x99, 0xbe, 0x65, 0x0a, 0x6a, 0xbe,
  0x59, 0xcc, 0x4e, 0xbd, 0x4f, 0xa7, 0x30, 0xbf, 0x25, 0x03, 0x7e, 0x3e,
  0x93, 0x92, 0xf4, 0xbe, 0x84, 0x49, 0xb1, 0x3d, 0xc1, 0x54, 0xbd, 0x3e,
  0xf8, 0x60, 0x85, 0xbe, 0x38, 0xed, 0x16, 0xbf, 0xaa, 0xf4, 0x1a, 0x3f,
  0xc8, 0x5b, 0x55, 0x3e, 0x15, 0x60, 0xae, 0x3e, 0x03, 0x6b, 0x90, 0x3e,
  0x64, 0x2f, 0x27, 0x3f, 0x64, 0x91, 0xf3, 0xbb, 0x60, 0x77, 0x1a, 0x3f,
  0xfb, 0xd1, 0xaa, 0x3e, 0x18, 0x46, 0x67, 0xbe, 0xec, 0x96, 0x9d, 0xbe,
  0x5b, 0xfc, 0x2b, 0xbe, 0x30, 0x71, 0x02, 0xbf, 0x72, 0x2b, 0x75, 0x3e,
  0x9e, 0x3e, 0x1d, 0x3e, 0x77, 0xec, 0x83, 0xbe, 0x9d, 0xbb, 0xc5, 0xbd,
  0x0a, 0x9a, 0x6c, 0x3e, 0x00, 0x67, 0x81, 0xba, 0x84, 0x10, 0xbc, 0x3e,
  0xce, 0x42, 0x02, 0x3f, 0x15, 0x36, 0xd4, 0xbe, 0x53, 0x54, 0xa2, 0x3e,
  0x84, 0xa8, 0x33, 0x3e, 0xf6, 0xfd, 0xff, 0xff, 0x04, 0x00, 0x00, 0x00,
  0x00, 0x01, 0x00, 0x00, 0x45, 0x23, 0x11, 0x3d, 0xeb, 0x28, 0x2a, 0xbf,
  0x6d, 0x9d, 0x9a, 0xbf, 0x8b, 0x93, 0xbf, 0x3e, 0xff, 0xbe, 0x28, 0xbf,
  0x31, 0x3f, 0x07, 0xbf, 0x94, 0x40, 0x63, 0xbf, 0x30, 0x19, 0xf6, 0x3d,
  0x65, 0x62, 0x79, 0xbf, 0xff, 0x94, 0x52, 0x3f, 0x91, 0x3c, 0x38, 0x3f,
  0x0d, 0xd7, 0xd1, 0x3e, 0x7f, 0x98, 0x5f, 0xbf, 0xe0, 0xa5, 0x4a, 0x3e,
  0x37, 0xab, 0x80, 0x3f, 0x2a, 0xce, 0x02, 0x3f, 0x47, 0x5c, 0xd3, 0xbe,
  0x1f, 0x66, 0x58, 0x3e, 0x2f, 0x2a, 0x1b, 0xbf, 0x0b, 0x46, 0x4a, 0x3f,
  0xb6, 0xde, 0xd8, 0x3e, 0xf2, 0xc7, 0x3c, 0xbf, 0x47, 0x46, 0x02, 0xbf,
  0x2c, 0xf2, 0xa7, 0x3e, 0x63, 0x37, 0x4c, 0x3d, 0xce, 0x3b, 0x09, 0xbe,
  0xbe, 0xfb, 0x49, 0x3d, 0x7e, 0x69, 0x5c, 0xbf, 0x47, 0x2a, 0x09, 0x3f,
  0xad, 0xa9, 0xa3, 0x3e, 0x5c, 0x92, 0xde, 0xbe, 0x5d, 0xfc, 0x3c, 0x3f,
  0x0b, 0xbe, 0x8a, 0x3f, 0x81, 0x7a, 0x12, 0x3f, 0x56, 0x76, 0xd2, 0xbe,
  0x47, 0x4b, 0x60, 0x3f, 0x1b, 0xbf, 0x6d, 0xbf, 0x65, 0x99, 0x20, 0x3f,
  0x84, 0xa2, 0xc9, 0x3e, 0x40, 0xfa, 0x5d, 0x3c, 0xc1, 0xf2, 0x44, 0xbf,
  0x7d, 0x38, 0x82, 0xbf, 0xda, 0x58, 0x82, 0xbf, 0xe8, 0x90, 0xc6, 0x3e,
  0x9b, 0x82, 0xad, 0xbe, 0x3e, 0xfc, 0x71, 0xbf, 0xe3, 0xb8, 0x4f, 0x3f,
  0x9c, 0x8b, 0x07, 0x3d, 0x76, 0x65, 0x84, 0xbf, 0x53, 0x41, 0x76, 0x3f,
  0x3a, 0x44, 0x97, 0x3f, 0x91, 0x02, 0xa5, 0xbf, 0x39, 0x53, 0x15, 0x3e,
  0x29, 0x86, 0x41, 0x3e, 0x8e, 0xcd, 0xfa, 0xbe, 0x40, 0xb9, 0xa9, 0xbd,
  0xbf, 0x79, 0x7b, 0x3f, 0x8f, 0x5f, 0xaf, 0xbe, 0xd8, 0xe7, 0x92, 0xbd,
  0x1d, 0xa4, 0x61, 0x3e, 0x6f, 0xcc, 0xef, 0x3e, 0xed, 0x58, 0x40, 0x3e,
  0xc7, 0x0e, 0xb7, 0xbf, 0x92, 0x80, 0x05, 0xbe, 0x02, 0xff, 0xff, 0xff,
  0x04, 0x00, 0x00, 0x00, 0x10, 0x00, 0x00, 0x00, 0xe5, 0x00, 0x5c, 0x3e,
  0x91, 0xd4, 0xbe, 0x3c, 0x6a, 0x4c, 0x3e, 0x3d, 0xf8, 0xf9, 0x93, 0xbe,
  0x1e, 0xff, 0xff, 0xff, 0x04, 0x00, 0x00, 0x00, 0x40, 0x00, 0x00, 0x00,
  0x1a, 0x66, 0xb4, 0x3e, 0x0c, 0x7b, 0x44, 0xbe, 0x3d, 0x2f, 0x8c, 0xbe,
  0xde, 0x01, 0xb3, 0x3e, 0xf6, 0x59, 0x45, 0xbe, 0xf4, 0xab, 0xed, 0xbc,
  0xf8, 0x48, 0x65, 0x3c, 0x00, 0x00, 0x00, 0x00, 0x70, 0xff, 0xae, 0xbe,
  0x91, 0x03, 0x74, 0x3e, 0xad, 0x9a, 0x30, 0x3e, 0x9e, 0x65, 0xbc, 0x3d,
  0xbe, 0xa3, 0x81, 0xbe, 0x5e, 0x76, 0xbb, 0x3c, 0xd4, 0x64, 0x07, 0x3f,
  0x7d, 0xde, 0x94, 0x3e, 0x0c, 0xfa, 0xff, 0xff, 0x10, 0xfa, 0xff, 0xff,
  0x0f, 0x00, 0x00, 0x00, 0x4d, 0x4c, 0x49, 0x52, 0x20, 0x43, 0x6f, 0x6e,
  0x76, 0x65, 0x72, 0x74, 0x65, 0x64, 0x2e, 0x00, 0x01, 0x00, 0x00, 0x00,
  0x14, 0x00, 0x00, 0x00, 0x00, 0x00, 0x0e, 0x00, 0x18, 0x00, 0x14, 0x00,
  0x10, 0x00, 0x0c, 0x00, 0x08, 0x00, 0x04, 0x00, 0x0e, 0x00, 0x00, 0x00,
  0x14, 0x00, 0x00, 0x00, 0x1c, 0x00, 0x00, 0x00, 0x34, 0x01, 0x00, 0x00,
  0x38, 0x01, 0x00, 0x00, 0x3c, 0x01, 0x00, 0x00, 0x04, 0x00, 0x00, 0x00,
  0x6d, 0x61, 0x69, 0x6e, 0x00, 0x00, 0x00, 0x00, 0x04, 0x00, 0x00, 0x00,
  0xdc, 0x00, 0x00, 0x00, 0x94, 0x00, 0x00, 0x00, 0x50, 0x00, 0x00, 0x00,
  0x14, 0x00, 0x00, 0x00, 0x00, 0x00, 0x0e, 0x00, 0x1a, 0x00, 0x14, 0x00,
  0x10, 0x00, 0x0c, 0x00, 0x0b, 0x00, 0x04, 0x00, 0x0e, 0x00, 0x00, 0x00,
  0x1c, 0x00, 0x00, 0x00, 0x00, 0x00, 0x00, 0x09, 0x1c, 0x00, 0x00, 0x00,
  0x20, 0x00, 0x00, 0x00, 0x01, 0x00, 0x00, 0x00, 0x00, 0x00, 0x06, 0x00,
  0x08, 0x00, 0x04, 0x00, 0x06, 0x00, 0x00, 0x00, 0x00, 0x00, 0x80, 0x3f,
  0x01, 0x00, 0x00, 0x00, 0x0a, 0x00, 0x00, 0x00, 0x01, 0x00, 0x00, 0x00,
  0x09, 0x00, 0x00, 0x00, 0xce, 0xff, 0xff, 0xff, 0x10, 0x00, 0x00, 0x00,
  0x00, 0x00, 0x00, 0x08, 0x0c, 0x00, 0x00, 0x00, 0x10, 0x00, 0x00, 0x00,
  0xd4, 0xfa, 0xff, 0xff, 0x01, 0x00, 0x00, 0x00, 0x09, 0x00, 0x00, 0x00,
  0x03, 0x00, 0x00, 0x00, 0x08, 0x00, 0x00, 0x00, 0x03, 0x00, 0x00, 0x00,
  0x02, 0x00, 0x00, 0x00, 0x00, 0x00, 0x0e, 0x00, 0x14, 0x00, 0x00, 0x00,
  0x10, 0x00, 0x0c, 0x00, 0x0b, 0x00, 0x04, 0x00, 0x0e, 0x00, 0x00, 0x00,
  0x10, 0x00, 0x00, 0x00, 0x00, 0x00, 0x00, 0x08, 0x10, 0x00, 0x00, 0x00,
  0x14, 0x00, 0x00, 0x00, 0xba, 0xff, 0xff, 0xff, 0x00, 0x00, 0x00, 0x01,
  0x01, 0x00, 0x00, 0x00, 0x08, 0x00, 0x00, 0x00, 0x03, 0x00, 0x00, 0x00,
  0x07, 0x00, 0x00, 0x00, 0x04, 0x00, 0x00, 0x00, 0x01, 0x00, 0x00, 0x00,
  0x00, 0x00, 0x0e, 0x00, 0x16, 0x00, 0x00, 0x00, 0x10, 0x00, 0x0c, 0x00,
  0x0b, 0x00, 0x04, 0x00, 0x0e, 0x00, 0x00, 0x00, 0x18, 0x00, 0x00, 0x00,
  0x00, 0x00, 0x00, 0x08, 0x18, 0x00, 0x00, 0x00, 0x1c, 0x00, 0x00, 0x00,
  0x00, 0x00, 0x06, 0x00, 0x08, 0x00, 0x07, 0x00, 0x06, 0x00, 0x00, 0x00,
  0x00, 0x00, 0x00, 0x01, 0x01, 0x00, 0x00, 0x00, 0x07, 0x00, 0x00, 0x00,
  0x03, 0x00, 0x00, 0x00, 0x00, 0x00, 0x00, 0x00, 0x05, 0x00, 0x00, 0x00,
  0x06, 0x00, 0x00, 0x00, 0x01, 0x00, 0x00, 0x00, 0x0a, 0x00, 0x00, 0x00,
  0x01, 0x00, 0x00, 0x00, 0x00, 0x00, 0x00, 0x00, 0x0b, 0x00, 0x00, 0x00,
  0x44, 0x04, 0x00, 0x00, 0xc4, 0x03, 0x00, 0x00, 0x60, 0x03, 0x00, 0x00,
  0x10, 0x03, 0x00, 0x00, 0xc0, 0x02, 0x00, 0x00, 0x74, 0x02, 0x00, 0x00,
  0x10, 0x02, 0x00, 0x00, 0x7c, 0x01, 0x00, 0x00, 0xe0, 0x00, 0x00, 0x00,
  0x60, 0x00, 0x00, 0x00, 0x04, 0x00, 0x00, 0x00, 0xfe, 0xfb, 0xff, 0xff,
  0x00, 0x00, 0x00, 0x01, 0x14, 0x00, 0x00, 0x00, 0x1c, 0x00, 0x00, 0x00,
  0x1c, 0x00, 0x00, 0x00, 0x0b, 0x00, 0x00, 0x00, 0x34, 0x00, 0x00, 0x00,
  0x02, 0x00, 0x00, 0x00, 0xff, 0xff, 0xff, 0xff, 0x04, 0x00, 0x00, 0x00,
  0xe8, 0xfb, 0xff, 0xff, 0x1b, 0x00, 0x00, 0x00, 0x53, 0x74, 0x61, 0x74,
  0x65, 0x66, 0x75, 0x6c, 0x50, 0x61, 0x72, 0x74, 0x69, 0x74, 0x69, 0x6f,
  0x6e, 0x65, 0x64, 0x43, 0x61, 0x6c, 0x6c, 0x5f, 0x31, 0x3a, 0x30, 0x00,
  0x02, 0x00, 0x00, 0x00, 0x01, 0x00, 0x00, 0x00, 0x04, 0x00, 0x00, 0x00,
  0x56, 0xfc, 0xff, 0xff, 0x00, 0x00, 0x00, 0x01, 0x14, 0x00, 0x00, 0x00,
  0x1c, 0x00, 0x00, 0x00, 0x1c, 0x00, 0x00, 0x00, 0x0a, 0x00, 0x00, 0x00,
  0x58, 0x00, 0x00, 0x00, 0x02, 0x00, 0x00, 0x00, 0xff, 0xff, 0xff, 0xff,
  0x04, 0x00, 0x00, 0x00, 0x40, 0xfc, 0xff, 0xff, 0x3c, 0x00, 0x00, 0x00,
  0x73, 0x65, 0x71, 0x75, 0x65, 0x6e, 0x74, 0x69, 0x61, 0x6c, 0x5f, 0x31,
  0x2f, 0x64, 0x65, 0x6e, 0x73, 0x65, 0x5f, 0x32, 0x5f, 0x31, 0x2f, 0x4d,
  0x61, 0x74, 0x4d, 0x75, 0x6c, 0x3b, 0x73, 0x65, 0x71, 0x75, 0x65, 0x6e,
  0x74, 0x69, 0x61, 0x6c, 0x5f, 0x31, 0x2f, 0x64, 0x65, 0x6e, 0x73, 0x65,
  0x5f, 0x32, 0x5f, 0x31, 0x2f, 0x42, 0x69, 0x61, 0x73, 0x41, 0x64, 0x64,
  0x00, 0x00, 0x00, 0x00, 0x02, 0x00, 0x00, 0x00, 0x01, 0x00, 0x00, 0x00,
  0x04, 0x00, 0x00, 0x00, 0xd2, 0xfc, 0xff, 0xff, 0x00, 0x00, 0x00, 0x01,
  0x14, 0x00, 0x00, 0x00, 0x1c, 0x00, 0x00, 0x00, 0x1c, 0x00, 0x00, 0x00,
  0x09, 0x00, 0x00, 0x00, 0x74, 0x00, 0x00, 0x00, 0x02, 0x00, 0x00, 0x00,
  0xff, 0xff, 0xff, 0xff, 0x10, 0x00, 0x00, 0x00, 0xbc, 0xfc, 0xff, 0xff,
  0x58, 0x00, 0x00, 0x00, 0x73, 0x65, 0x71, 0x75, 0x65, 0x6e, 0x74, 0x69,
  0x61, 0x6c, 0x5f, 0x31, 0x2f, 0x64, 0x65, 0x6e, 0x73, 0x65, 0x5f, 0x31,
  0x5f, 0x32, 0x2f, 0x4d, 0x61, 0x74, 0x4d, 0x75, 0x6c, 0x3b, 0x73, 0x65,
  0x71, 0x75, 0x65, 0x6e, 0x74, 0x69, 0x61, 0x6c, 0x5f, 0x31, 0x2f, 0x64,
  0x65, 0x6e, 0x73, 0x65, 0x5f, 0x31, 0x5f, 0x32, 0x2f, 0x52, 0x65, 0x6c,
  0x75, 0x3b, 0x73, 0x65, 0x71, 0x75, 0x65, 0x6e, 0x74, 0x69, 0x61, 0x6c,
  0x5f, 0x31, 0x2f, 0x64, 0x65, 0x6e, 0x73, 0x65, 0x5f, 0x31, 0x5f, 0x32,
  0x2f, 0x42, 0x69, 0x61, 0x73, 0x41, 0x64, 0x64, 0x00, 0x00, 0x00, 0x00,
  0x02, 0x00, 0x00, 0x00, 0x01, 0x00, 0x00, 0x00, 0x10, 0x00, 0x00, 0x00,
  0x6a, 0xfd, 0xff, 0xff, 0x00, 0x00, 0x00, 0x01, 0x14, 0x00, 0x00, 0x00,
  0x1c, 0x00, 0x00, 0x00, 0x1c, 0x00, 0x00, 0x00, 0x08, 0x00, 0x00, 0x00,
  0x6c, 0x00, 0x00, 0x00, 0x02, 0x00, 0x00, 0x00, 0xff, 0xff, 0xff, 0xff,
  0x20, 0x00, 0x00, 0x00, 0x54, 0xfd, 0xff, 0xff, 0x52, 0x00, 0x00, 0x00,
  0x73, 0x65, 0x71, 0x75, 0x65, 0x6e, 0x74, 0x69, 0x61, 0x6c, 0x5f, 0x31,
  0x2f, 0x64, 0x65, 0x6e, 0x73, 0x65, 0x5f, 0x31, 0x2f, 0x4d, 0x61, 0x74,
  0x4d, 0x75, 0x6c, 0x3b, 0x73, 0x65, 0x71, 0x75, 0x65, 0x6e, 0x74, 0x69,
  0x61, 0x6c, 0x5f, 0x31, 0x2f, 0x64, 0x65, 0x6e, 0x73, 0x65, 0x5f, 0x31,
  0x2f, 0x52, 0x65, 0x6c, 0x75, 0x3b, 0x73, 0x65, 0x71, 0x75, 0x65, 0x6e,
  0x74, 0x69, 0x61, 0x6c, 0x5f, 0x31, 0x2f, 0x64, 0x65, 0x6e, 0x73, 0x65,
  0x5f, 0x31, 0x2f, 0x42, 0x69, 0x61, 0x73, 0x41, 0x64, 0x64, 0x00, 0x00,
  0x02, 0x00, 0x00, 0x00, 0x01, 0x00, 0x00, 0x00, 0x20, 0x00, 0x00, 0x00,
  0x76, 0xfe, 0xff, 0xff, 0x00, 0x00, 0x00, 0x01, 0x10, 0x00, 0x00, 0x00,
  0x10, 0x00, 0x00, 0x00, 0x07, 0x00, 0x00, 0x00, 0x44, 0x00, 0x00, 0x00,
  0xd4, 0xfd, 0xff, 0xff, 0x36, 0x00, 0x00, 0x00, 0x73, 0x65, 0x71, 0x75,
  0x65, 0x6e, 0x74, 0x69, 0x61, 0x6c, 0x5f, 0x31, 0x2f, 0x64, 0x65, 0x6e,
  0x73, 0x65, 0x5f, 0x31, 0x2f, 0x52, 0x65, 0x6c, 0x75, 0x3b, 0x73, 0x65,
  0x71, 0x75, 0x65, 0x6e, 0x74, 0x69, 0x61, 0x6c, 0x5f, 0x31, 0x2f, 0x64,
  0x65, 0x6e, 0x73, 0x65, 0x5f, 0x31, 0x2f, 0x42, 0x69, 0x61, 0x73, 0x41,
  0x64, 0x64, 0x00, 0x00, 0x01, 0x00, 0x00, 0x00, 0x20, 0x00, 0x00, 0x00,
  0xd6, 0xfe, 0xff, 0xff, 0x00, 0x00, 0x00, 0x01, 0x10, 0x00, 0x00, 0x00,
  0x10, 0x00, 0x00, 0x00, 0x06, 0x00, 0x00, 0x00, 0x28, 0x00, 0x00, 0x00,
  0x34, 0xfe, 0xff, 0xff, 0x1b, 0x00, 0x00, 0x00, 0x73, 0x65, 0x71, 0x75,
  0x65, 0x6e, 0x74, 0x69, 0x61, 0x6c, 0x5f, 0x31, 0x2f, 0x64, 0x65, 0x6e,
  0x73, 0x65, 0x5f, 0x31, 0x2f, 0x4d, 0x61, 0x74, 0x4d, 0x75, 0x6c, 0x00,
  0x02, 0x00, 0x00, 0x00, 0x20, 0x00, 0x00, 0x00, 0x03, 0x00, 0x00, 0x00,
  0x1e, 0xff, 0xff, 0xff, 0x00, 0x00, 0x00, 0x01, 0x10, 0x00, 0x00, 0x00,
  0x10, 0x00, 0x00, 0x00, 0x05, 0x00, 0x00, 0x00, 0x2c, 0x00, 0x00, 0x00,
  0x7c, 0xfe, 0xff, 0xff, 0x1d, 0x00, 0x00, 0x00, 0x73, 0x65, 0x71, 0x75,
  0x65, 0x6e, 0x74, 0x69, 0x61, 0x6c, 0x5f, 0x31, 0x2f, 0x64, 0x65, 0x6e,
  0x73, 0x65, 0x5f, 0x31, 0x5f, 0x32, 0x2f, 0x4d, 0x61, 0x74, 0x4d, 0x75,
  0x6c, 0x00, 0x00, 0x00, 0x02, 0x00, 0x00, 0x00, 0x10, 0x00, 0x00, 0x00,
  0x20, 0x00, 0x00, 0x00, 0x6a, 0xff, 0xff, 0xff, 0x00, 0x00, 0x00, 0x01,
  0x10, 0x00, 0x00, 0x00, 0x10, 0x00, 0x00, 0x00, 0x04, 0x00, 0x00, 0x00,
  0x2c, 0x00, 0x00, 0x00, 0xc8, 0xfe, 0xff, 0xff, 0x1d, 0x00, 0x00, 0x00,
  0x73, 0x65, 0x71, 0x75, 0x65, 0x6e, 0x74, 0x69, 0x61, 0x6c, 0x5f, 0x31,
  0x2f, 0x64, 0x65, 0x6e, 0x73, 0x65, 0x5f, 0x32, 0x5f, 0x31, 0x2f, 0x4d,
  0x61, 0x74, 0x4d, 0x75, 0x6c, 0x00, 0x00, 0x00, 0x02, 0x00, 0x00, 0x00,
  0x04, 0x00, 0x00, 0x00, 0x10, 0x00, 0x00, 0x00, 0xb6, 0xff, 0xff, 0xff,
  0x00, 0x00, 0x00, 0x01, 0x10, 0x00, 0x00, 0x00, 0x10, 0x00, 0x00, 0x00,
  0x03, 0x00, 0x00, 0x00, 0x2c, 0x00, 0x00, 0x00, 0x14, 0xff, 0xff, 0xff,
  0x1e, 0x00, 0x00, 0x00, 0x73, 0x65, 0x71, 0x75, 0x65, 0x6e, 0x74, 0x69,
  0x61, 0x6c, 0x5f, 0x31, 0x2f, 0x64, 0x65, 0x6e, 0x73, 0x65, 0x5f, 0x32,
  0x5f, 0x31, 0x2f, 0x42, 0x69, 0x61, 0x73, 0x41, 0x64, 0x64, 0x00, 0x00,
  0x01, 0x00, 0x00, 0x00, 0x04, 0x00, 0x00, 0x00, 0x00, 0x00, 0x16, 0x00,
  0x18, 0x00, 0x14, 0x00, 0x00, 0x00, 0x10, 0x00, 0x0c, 0x00, 0x08, 0x00,
  0x00, 0x00, 0x00, 0x00, 0x00, 0x00, 0x07, 0x00, 0x16, 0x00, 0x00, 0x00,
  0x00, 0x00, 0x00, 0x01, 0x10, 0x00, 0x00, 0x00, 0x10, 0x00, 0x00, 0x00,
  0x02, 0x00, 0x00, 0x00, 0x48, 0x00, 0x00, 0x00, 0x74, 0xff, 0xff, 0xff,
  0x3a, 0x00, 0x00, 0x00, 0x73, 0x65, 0x71, 0x75, 0x65, 0x6e, 0x74, 0x69,
  0x61, 0x6c, 0x5f, 0x31, 0x2f, 0x64, 0x65, 0x6e, 0x73, 0x65, 0x5f, 0x31,
  0x5f, 0x32, 0x2f, 0x52, 0x65, 0x6c, 0x75, 0x3b, 0x73, 0x65, 0x71, 0x75,
  0x65, 0x6e, 0x74, 0x69, 0x61, 0x6c, 0x5f, 0x31, 0x2f, 0x64, 0x65, 0x6e,
  0x73, 0x65, 0x5f, 0x31, 0x5f, 0x32, 0x2f, 0x42, 0x69, 0x61, 0x73, 0x41,
  0x64, 0x64, 0x00, 0x00, 0x01, 0x00, 0x00, 0x00, 0x10, 0x00, 0x00, 0x00,
  0x00, 0x00, 0x16, 0x00, 0x1c, 0x00, 0x18, 0x00, 0x00, 0x00, 0x14, 0x00,
  0x10, 0x00, 0x0c, 0x00, 0x00, 0x00, 0x00, 0x00, 0x08, 0x00, 0x07, 0x00,
  0x16, 0x00, 0x00, 0x00, 0x00, 0x00, 0x00, 0x01, 0x14, 0x00, 0x00, 0x00,
  0x20, 0x00, 0x00, 0x00, 0x20, 0x00, 0x00, 0x00, 0x01, 0x00, 0x00, 0x00,
  0x3c, 0x00, 0x00, 0x00, 0x02, 0x00, 0x00, 0x00, 0xff, 0xff, 0xff, 0xff,
  0x03, 0x00, 0x00, 0x00, 0x04, 0x00, 0x04, 0x00, 0x04, 0x00, 0x00, 0x00,
  0x1e, 0x00, 0x00, 0x00, 0x73, 0x65, 0x72, 0x76, 0x69, 0x6e, 0x67, 0x5f,
  0x64, 0x65, 0x66, 0x61, 0x75, 0x6c, 0x74, 0x5f, 0x6b, 0x65, 0x72, 0x61,
  0x73, 0x5f, 0x74, 0x65, 0x6e, 0x73, 0x6f, 0x72, 0x3a, 0x30, 0x00, 0x00,
  0x02, 0x00, 0x00, 0x00, 0x01, 0x00, 0x00, 0x00, 0x03, 0x00, 0x00, 0x00,
  0x02, 0x00, 0x00, 0x00, 0x20, 0x00, 0x00, 0x00, 0x04, 0x00, 0x00, 0x00,
  0xf4, 0xff, 0xff, 0xff, 0x19, 0x00, 0x00, 0x00, 0x00, 0x00, 0x00, 0x19,
  0x0c, 0x00, 0x0c, 0x00, 0x0b, 0x00, 0x00, 0x00, 0x00, 0x00, 0x04, 0x00,
  0x0c, 0x00, 0x00, 0x00, 0x09, 0x00, 0x00, 0x00, 0x00, 0x00, 0x00, 0x09
};
