const unsigned char smart_env_model_tflite[] = {
  0x1c, 0x00, 0x00, 0x00, 0x54, 0x46, 0x4c, 0x33, 0x14, 0x00, 0x20, 0x00,
  0x1c, 0x00, 0x18, 0x00, 0x14, 0x00, 0x10, 0x00, 0x0c, 0x00, 0x00, 0x00,
  0x08, 0x00, 0x04, 0x00, 0x14, 0x00, 0x00, 0x00, 0x1c, 0x00, 0x00, 0x00,
  0x98, 0x00, 0x00, 0x00, 0xf0, 0x00, 0x00, 0x00, 0xc0, 0x05, 0x00, 0x00,
  0xd0, 0x05, 0x00, 0x00, 0xdc, 0x0b, 0x00, 0x00, 0x03, 0x00, 0x00, 0x00,
  0x01, 0x00, 0x00, 0x00, 0x10, 0x00, 0x00, 0x00, 0x00, 0x00, 0x0a, 0x00,
  0x10, 0x00, 0x0c, 0x00, 0x08, 0x00, 0x04, 0x00, 0x0a, 0x00, 0x00, 0x00,
  0x0c, 0x00, 0x00, 0x00, 0x1c, 0x00, 0x00, 0x00, 0x3c, 0x00, 0x00, 0x00,
  0x0f, 0x00, 0x00, 0x00, 0x73, 0x65, 0x72, 0x76, 0x69, 0x6e, 0x67, 0x5f,
  0x64, 0x65, 0x66, 0x61, 0x75, 0x6c, 0x74, 0x00, 0x01, 0x00, 0x00, 0x00,
  0x04, 0x00, 0x00, 0x00, 0x90, 0xff, 0xff, 0xff, 0x0a, 0x00, 0x00, 0x00,
  0x04, 0x00, 0x00, 0x00, 0x08, 0x00, 0x00, 0x00, 0x6f, 0x75, 0x74, 0x70,
  0x75, 0x74, 0x5f, 0x30, 0x00, 0x00, 0x00, 0x00, 0x01, 0x00, 0x00, 0x00,
  0x04, 0x00, 0x00, 0x00, 0x26, 0xfa, 0xff, 0xff, 0x04, 0x00, 0x00, 0x00,
  0x0c, 0x00, 0x00, 0x00, 0x6b, 0x65, 0x72, 0x61, 0x73, 0x5f, 0x74, 0x65,
  0x6e, 0x73, 0x6f, 0x72, 0x00, 0x00, 0x00, 0x00, 0x02, 0x00, 0x00, 0x00,
  0x34, 0x00, 0x00, 0x00, 0x04, 0x00, 0x00, 0x00, 0xdc, 0xff, 0xff, 0xff,
  0x0d, 0x00, 0x00, 0x00, 0x04, 0x00, 0x00, 0x00, 0x13, 0x00, 0x00, 0x00,
  0x43, 0x4f, 0x4e, 0x56, 0x45, 0x52, 0x53, 0x49, 0x4f, 0x4e, 0x5f, 0x4d,
  0x45, 0x54, 0x41, 0x44, 0x41, 0x54, 0x41, 0x00, 0x08, 0x00, 0x0c, 0x00,
  0x08, 0x00, 0x04, 0x00, 0x08, 0x00, 0x00, 0x00, 0x0c, 0x00, 0x00, 0x00,
  0x04, 0x00, 0x00, 0x00, 0x13, 0x00, 0x00, 0x00, 0x6d, 0x69, 0x6e, 0x5f,
  0x72, 0x75, 0x6e, 0x74, 0x69, 0x6d, 0x65, 0x5f, 0x76, 0x65, 0x72, 0x73,
  0x69, 0x6f, 0x6e, 0x00, 0x0e, 0x00, 0x00, 0x00, 0xcc, 0x04, 0x00, 0x00,
  0xc4, 0x04, 0x00, 0x00, 0x94, 0x04, 0x00, 0x00, 0x74, 0x04, 0x00, 0x00,
  0xe4, 0x03, 0x00, 0x00, 0xd4, 0x01, 0x00, 0x00, 0x04, 0x01, 0x00, 0x00,
  0xb4, 0x00, 0x00, 0x00, 0xac, 0x00, 0x00, 0x00, 0xa4, 0x00, 0x00, 0x00,
  0x9c, 0x00, 0x00, 0x00, 0x94, 0x00, 0x00, 0x00, 0x74, 0x00, 0x00, 0x00,
  0x04, 0x00, 0x00, 0x00, 0xda, 0xfa, 0xff, 0xff, 0x04, 0x00, 0x00, 0x00,
  0x60, 0x00, 0x00, 0x00, 0x0c, 0x00, 0x00, 0x00, 0x08, 0x00, 0x0e, 0x00,
  0x08, 0x00, 0x04, 0x00, 0x08, 0x00, 0x00, 0x00, 0x10, 0x00, 0x00, 0x00,
  0x28, 0x00, 0x00, 0x00, 0x00, 0x00, 0x06, 0x00, 0x08, 0x00, 0x04, 0x00,
  0x06, 0x00, 0x00, 0x00, 0x04, 0x00, 0x00, 0x00, 0x01, 0x00, 0x00, 0x00,
  0xea, 0x03, 0x00, 0x00, 0x0c, 0x00, 0x18, 0x00, 0x14, 0x00, 0x10, 0x00,
  0x0c, 0x00, 0x04, 0x00, 0x0c, 0x00, 0x00, 0x00, 0x8b, 0x5d, 0x2d, 0xe1,
  0x90, 0xe6, 0x43, 0x24, 0x02, 0x00, 0x00, 0x00, 0x02, 0x00, 0x00, 0x00,
  0x04, 0x00, 0x00, 0x00, 0x06, 0x00, 0x00, 0x00, 0x32, 0x2e, 0x32, 0x31,
  0x2e, 0x30, 0x00, 0x00, 0x46, 0xfb, 0xff, 0xff, 0x04, 0x00, 0x00, 0x00,
  0x10, 0x00, 0x00, 0x00, 0x31, 0x2e, 0x35, 0x2e, 0x30, 0x00, 0x00, 0x00,
  0x00, 0x00, 0x00, 0x00, 0x00, 0x00, 0x00, 0x00, 0x04, 0xf6, 0xff, 0xff,
  0x08, 0xf6, 0xff, 0xff, 0x0c, 0xf6, 0xff, 0xff, 0x10, 0xf6, 0xff, 0xff,
  0x72, 0xfb, 0xff, 0xff, 0x04, 0x00, 0x00, 0x00, 0x40, 0x00, 0x00, 0x00,
  0xe3, 0x5d, 0xf8, 0xbd, 0x88, 0xb0, 0x81, 0xbd, 0x20, 0x19, 0x08, 0x3f,
  0xf7, 0xed, 0xd9, 0x3e, 0xbf, 0x3b, 0xbd, 0xbe, 0x85, 0x5a, 0xf7, 0xbd,
  0xf9, 0xf6, 0x6b, 0xbe, 0x65, 0x29, 0x3f, 0x3e, 0x00, 0x00, 0x00, 0x00,
  0x00, 0x00, 0x00, 0x00, 0xde, 0x25, 0xb9, 0x3e, 0x00, 0x00, 0x00, 0x00,
  0x30, 0xe4, 0x04, 0x3f, 0x64, 0x43, 0x95, 0x3e, 0xad, 0x53, 0xb1, 0x3e,
  0x00, 0x00, 0x00, 0x00, 0xbe, 0xfb, 0xff, 0xff, 0x04, 0x00, 0x00, 0x00,
  0xc0, 0x00, 0x00, 0x00, 0xa4, 0xdf, 0x14, 0x3f, 0xe6, 0x37, 0x72, 0x3e,
  0xe1, 0xae, 0x25, 0x3f, 0x4b, 0x37, 0x7e, 0x3f, 0x6d, 0xb3, 0xbc, 0xbd,
  0x8b, 0xb6, 0xb2, 0xbe, 0x80, 0xcb, 0x04, 0xbf, 0x2c, 0x9d, 0xcc, 0x3e,
  0x7d, 0x08, 0x7b, 0xbe, 0x1e, 0x77, 0xdf, 0xbe, 0xce, 0xec, 0x38, 0x3e,
  0x0a, 0xc6, 0x86, 0x3e, 0x20, 0x1c, 0x9f, 0x3e, 0x38, 0x1b, 0x2b, 0x3f,
  0xd6, 0xc4, 0x08, 0x3f, 0x93, 0xca, 0x0f, 0x3f, 0x12, 0x61, 0x93, 0x3e,
  0x31, 0x36, 0x82, 0xbe, 0x11, 0xa1, 0x5b, 0x3f, 0xe0, 0x00, 0x21, 0x3f,
  0xcc, 0xaa, 0x0c, 0x3f, 0xb2, 0x54, 0x41, 0x3e, 0x09, 0x7f, 0xfe, 0xbe,
  0xeb, 0xa5, 0x32, 0x3f, 0x1e, 0x5d, 0x65, 0xbe, 0xea, 0x35, 0xa3, 0xbe,
  0xae, 0x41, 0x7e, 0xbe, 0x0f, 0xab, 0xf9, 0xbe, 0xfa, 0xf2, 0xcf, 0xbe,
  0xb8, 0xd1, 0xd8, 0xbe, 0x8b, 0x79, 0xa3, 0x3e, 0xbb, 0x9c, 0x8e, 0x3e,
  0x9a, 0x3a, 0x04, 0x3e, 0x0a, 0x09, 0x55, 0xbe, 0xe4, 0x89, 0x75, 0xbe,
  0x42, 0xa0, 0x63, 0xbe, 0x1b, 0x81, 0x19, 0xbf, 0x3e, 0x42, 0xaa, 0xbd,
  0x51, 0xcc, 0x53, 0x3f, 0x17, 0x64, 0x9a, 0xbe, 0x14, 0x7a, 0x86, 0x3e,
  0xf8, 0xf6, 0xcf, 0xbd, 0x67, 0x43, 0x23, 0xbf, 0x80, 0x80, 0x30, 0x3f,
  0x05, 0x8e, 0x7e, 0x3d, 0x30, 0x21, 0x0b, 0xbf, 0x8c, 0xe6, 0x09, 0xbf,
  0xc6, 0x7e, 0x99, 0xbe, 0x8a, 0xfc, 0xff, 0xff, 0x04, 0x00, 0x00, 0x00,
  0x00, 0x02, 0x00, 0x00, 0x04, 0x75, 0x76, 0x3f, 0xca, 0xca, 0x3b, 0x3e,
  0xf2, 0xcf, 0xad, 0xbf, 0xf8, 0x76, 0x31, 0xbd, 0xd3, 0x1b, 0x1f, 0x3f,
  0xe2, 0x65, 0x40, 0x3e, 0x4c, 0x64, 0x20, 0x3f, 0x07, 0x3a, 0xd8, 0x3e,
  0x80, 0x2f, 0xfd, 0x3d, 0xe4, 0xfc, 0xca, 0x3e, 0xe5, 0xd9, 0x4b, 0x3e,
  0xe0, 0xaa, 0x2c, 0xbd, 0x15, 0xe7, 0x25, 0x3f, 0xd3, 0xce, 0x23, 0xbf,
  0xaf, 0x68, 0x21, 0xbf, 0x88, 0xf7, 0x1b, 0xbe, 0xcf, 0xe5, 0xbb, 0xbd,
  0x4b, 0x57, 0x45, 0xbe, 0x57, 0x0b, 0x7e, 0x3f, 0x66, 0x35, 0x18, 0x3f,
  0x1d, 0x1e, 0x01, 0xbf, 0x3f, 0xb8, 0xd9, 0xbe, 0xff, 0x5d, 0xd8, 0xbe,
  0x29, 0xa3, 0xaa, 0xbd, 0x88, 0x35, 0x74, 0xbe, 0x00, 0x71, 0xda, 0xbe,
  0xfa, 0xd1, 0xeb, 0x3e, 0x00, 0x10, 0x17, 0x3d, 0xe6, 0x5d, 0x4d, 0x3f,
  0x52, 0xed, 0x3f, 0x3f, 0x13, 0x09, 0xfd, 0x3e, 0xe8, 0xae, 0xbb, 0xbe,
  0x4c, 0x92, 0x2f, 0x3e, 0x8c, 0x57, 0xfe, 0x3d, 0x73, 0x92, 0x2e, 0x3e,
  0x15, 0xfd, 0x05, 0xbf, 0x76, 0x65, 0x09, 0xbd, 0x48, 0x37, 0xee, 0xbd,
  0xee, 0x95, 0xd8, 0xbe, 0xb0, 0x04, 0x95, 0xbd, 0xe8, 0x25, 0xbe, 0x3e,
  0xc4, 0x1e, 0xaa, 0x3e, 0xda, 0x19, 0xa7, 0x3e, 0x38, 0x4d, 0xdf, 0x3e,
  0x44, 0xde, 0x67, 0xbd, 0x17, 0x59, 0x47, 0x3d, 0x9e, 0xb8, 0xeb, 0xbd,
  0x64, 0xfc, 0xc6, 0x3e, 0xdf, 0x64, 0xe7, 0x3e, 0x33, 0xb5, 0xb6, 0x3f,
  0x02, 0x4a, 0x1e, 0xbf, 0xa0, 0xec, 0xef, 0x3d, 0x33, 0x36, 0xa9, 0xbe,
  0xdf, 0xc2, 0x39, 0x3f, 0x1d, 0x52, 0xdf, 0x3d, 0x2b, 0xa1, 0x38, 0x3f,
  0xf4, 0x02, 0x8d, 0xbe, 0xe0, 0xb8, 0x63, 0x3d, 0xd6, 0x57, 0xdd, 0x3e,
  0xe0, 0xca, 0xa8, 0xbe, 0xbe, 0x7c, 0xf6, 0xbe, 0xa0, 0xf9, 0xf4, 0xbe,
  0xb4, 0xaa, 0xad, 0xbf, 0x2c, 0xed, 0xc1, 0x3e, 0xe0, 0x17, 0x5b, 0xbd,
  0x14, 0x34, 0xf2, 0x3e, 0x74, 0x15, 0xb3, 0xbe, 0x80, 0x56, 0x76, 0xbc,
  0x20, 0x9d, 0xe5, 0x3e, 0x20, 0x92, 0xa3, 0xbe, 0x48, 0xa3, 0x5f, 0xbe,
  0x60, 0x59, 0xd2, 0xbe, 0x50, 0x03, 0xda, 0xbe, 0xe0, 0x0f, 0x6e, 0xbe,
  0x18, 0x5f, 0xb9, 0xbe, 0x70, 0x13, 0xfb, 0x3e, 0x7c, 0xd7, 0x83, 0x3e,
  0x00, 0xcd, 0x34, 0x3c, 0x18, 0xea, 0x56, 0xbe, 0x30, 0xe0, 0x9a, 0x3e,
  0x41, 0x9d, 0xd2, 0x3e, 0x39, 0xef, 0xa3, 0x3f, 0x51, 0x78, 0x18, 0xbf,
  0xa6, 0xff, 0x1c, 0xbf, 0x83, 0x29, 0x0c, 0x3f, 0xe1, 0x85, 0x00, 0x3f,
  0xac, 0xa8, 0xe3, 0x3e, 0xbc, 0x75, 0x2d, 0xbf, 0x1c, 0x7b, 0x88, 0x3e,
  0x10, 0x20, 0xe8, 0x3e, 0x6b, 0x53, 0xbf, 0x3e, 0x1c, 0x1a, 0x81, 0xbe,
  0xc8, 0xba, 0x33, 0xbf, 0xc8, 0x02, 0x2b, 0xbd, 0x70, 0x2f, 0xd2, 0xbc,
  0x74, 0x81, 0xbd, 0xbe, 0x1c, 0x99, 0xab, 0x3d, 0xd2, 0x0d, 0x87, 0xbb,
  0x3c, 0x88, 0xad, 0x3e, 0x28, 0x94, 0x74, 0xbe, 0xda, 0x64, 0xc6, 0xbd,
  0x6a, 0xc1, 0x4c, 0x3e, 0x40, 0xa9, 0x44, 0xbe, 0x55, 0x50, 0x45, 0xbd,
  0x50, 0x4f, 0x90, 0x3d, 0xc0, 0x02, 0xee, 0x3d, 0x30, 0xf4, 0x00, 0x3d,
  0xcc, 0x6e, 0xa3, 0xbe, 0xb8, 0xce, 0x5a, 0x3e, 0xd0, 0x4c, 0x96, 0x3e,
  0xf3, 0x72, 0xec, 0xbe, 0x40, 0x74, 0x37, 0x3e, 0x24, 0xf9, 0x8b, 0xbe,
  0x08, 0x2e, 0x3f, 0xbe, 0x78, 0x71, 0xb3, 0xbe, 0x60, 0xa6, 0x5c, 0x3d,
  0xa0, 0x1a, 0x01, 0x3d, 0x64, 0x27, 0xa3, 0xbe, 0x20, 0x4f, 0x7f, 0xbe,
  0x64, 0xe8, 0x9d, 0xbe, 0x2c, 0x65, 0xae, 0x3e, 0x9c, 0x89, 0x8e, 0xbe,
  0x80, 0x05, 0x6b, 0x3c, 0xb0, 0xc8, 0x27, 0x3e, 0x88, 0x42, 0x18, 0xbe,
  0xb0, 0x26, 0x5e, 0xbe, 0xa0, 0xf4, 0xc3, 0xbd, 0x30, 0x9e, 0xeb, 0x3d,
  0x96, 0xfe, 0xff, 0xff, 0x04, 0x00, 0x00, 0x00, 0x80, 0x00, 0x00, 0x00,
  0x17, 0xea, 0x8d, 0x3e, 0x02, 0x5a, 0x9c, 0x3f, 0x76, 0xca, 0x80, 0x3e,
  0xa5, 0xc3, 0x47, 0x3e, 0x68, 0x0c, 0xd1, 0x3d, 0xf6, 0xb7, 0x9b, 0xbf,
  0x57, 0x12, 0x04, 0x3f, 0x02, 0x70, 0xa9, 0xbe, 0x79, 0x56, 0x4d, 0x3f,
  0xb5, 0xf8, 0xe2, 0xbf, 0xed, 0x84, 0xfa, 0x3e, 0xb4, 0xed, 0x2e, 0x3f,
  0x10, 0x0c, 0x57, 0x3e, 0xb1, 0xcc, 0xbc, 0x3f, 0xc5, 0x9b, 0x04, 0xbf,
  0x7d, 0xa7, 0x2a, 0xbf, 0xe3, 0xa2, 0x58, 0xbf, 0xee, 0x59, 0x5f, 0x3f,
  0xed, 0x42, 0xa0, 0xbe, 0x59, 0xb4, 0x81, 0x3e, 0xfa, 0x05, 0x1a, 0xbf,
  0x15, 0x7c, 0xd0, 0x3e, 0xcf, 0x7b, 0x4f, 0xbe, 0xaa, 0x7f, 0xa3, 0x3e,
  0x1e, 0xac, 0x7e, 0x3e, 0xa6, 0x89, 0x60, 0x3e, 0x38, 0x4e, 0x29, 0xbf,
  0xb8, 0x2d, 0x76, 0xbf, 0x6b, 0x7d, 0x10, 0x3f, 0xe6, 0x4b, 0xac, 0x3d,
  0x2d, 0xaf, 0xc9, 0x3e, 0x78, 0x62, 0xef, 0xbd, 0x22, 0xff, 0xff, 0xff,
  0x04, 0x00, 0x00, 0x00, 0x10, 0x00, 0x00, 0x00, 0xf8, 0x54, 0xa9, 0x3e,
  0x55, 0x93, 0xa3, 0xbd, 0x87, 0xe1, 0xd5, 0xbd, 0x93, 0x99, 0xd3, 0xbd,
  0x3e, 0xff, 0xff, 0xff, 0x04, 0x00, 0x00, 0x00, 0x20, 0x00, 0x00, 0x00,
  0xac, 0xe5, 0xb4, 0xbd, 0xaa, 0x33, 0xc6, 0x3e, 0xaa, 0x43, 0xd4, 0xbc,
  0x79, 0x63, 0xe7, 0x3d, 0x00, 0x00, 0x00, 0x00, 0x5c, 0x75, 0x6d, 0xbe,
  0xfe, 0x8c, 0x5a, 0xbd, 0x00, 0x00, 0x00, 0x00, 0x0c, 0xfa, 0xff, 0xff,
  0x10, 0xfa, 0xff, 0xff, 0x0f, 0x00, 0x00, 0x00, 0x4d, 0x4c, 0x49, 0x52,
  0x20, 0x43, 0x6f, 0x6e, 0x76, 0x65, 0x72, 0x74, 0x65, 0x64, 0x2e, 0x00,
  0x01, 0x00, 0x00, 0x00, 0x14, 0x00, 0x00, 0x00, 0x00, 0x00, 0x0e, 0x00,
  0x18, 0x00, 0x14, 0x00, 0x10, 0x00, 0x0c, 0x00, 0x08, 0x00, 0x04, 0x00,
  0x0e, 0x00, 0x00, 0x00, 0x14, 0x00, 0x00, 0x00, 0x1c, 0x00, 0x00, 0x00,
  0x34, 0x01, 0x00, 0x00, 0x38, 0x01, 0x00, 0x00, 0x3c, 0x01, 0x00, 0x00,
  0x04, 0x00, 0x00, 0x00, 0x6d, 0x61, 0x69, 0x6e, 0x00, 0x00, 0x00, 0x00,
  0x04, 0x00, 0x00, 0x00, 0xdc, 0x00, 0x00, 0x00, 0x94, 0x00, 0x00, 0x00,
  0x50, 0x00, 0x00, 0x00, 0x14, 0x00, 0x00, 0x00, 0x00, 0x00, 0x0e, 0x00,
  0x1a, 0x00, 0x14, 0x00, 0x10, 0x00, 0x0c, 0x00, 0x0b, 0x00, 0x04, 0x00,
  0x0e, 0x00, 0x00, 0x00, 0x1c, 0x00, 0x00, 0x00, 0x00, 0x00, 0x00, 0x09,
  0x1c, 0x00, 0x00, 0x00, 0x20, 0x00, 0x00, 0x00, 0x01, 0x00, 0x00, 0x00,
  0x00, 0x00, 0x06, 0x00, 0x08, 0x00, 0x04, 0x00, 0x06, 0x00, 0x00, 0x00,
  0x00, 0x00, 0x80, 0x3f, 0x01, 0x00, 0x00, 0x00, 0x0a, 0x00, 0x00, 0x00,
  0x01, 0x00, 0x00, 0x00, 0x09, 0x00, 0x00, 0x00, 0xce, 0xff, 0xff, 0xff,
  0x10, 0x00, 0x00, 0x00, 0x00, 0x00, 0x00, 0x08, 0x0c, 0x00, 0x00, 0x00,
  0x10, 0x00, 0x00, 0x00, 0xd4, 0xfa, 0xff, 0xff, 0x01, 0x00, 0x00, 0x00,
  0x09, 0x00, 0x00, 0x00, 0x03, 0x00, 0x00, 0x00, 0x08, 0x00, 0x00, 0x00,
  0x03, 0x00, 0x00, 0x00, 0x02, 0x00, 0x00, 0x00, 0x00, 0x00, 0x0e, 0x00,
  0x14, 0x00, 0x00, 0x00, 0x10, 0x00, 0x0c, 0x00, 0x0b, 0x00, 0x04, 0x00,
  0x0e, 0x00, 0x00, 0x00, 0x10, 0x00, 0x00, 0x00, 0x00, 0x00, 0x00, 0x08,
  0x10, 0x00, 0x00, 0x00, 0x14, 0x00, 0x00, 0x00, 0xba, 0xff, 0xff, 0xff,
  0x00, 0x00, 0x00, 0x01, 0x01, 0x00, 0x00, 0x00, 0x08, 0x00, 0x00, 0x00,
  0x03, 0x00, 0x00, 0x00, 0x07, 0x00, 0x00, 0x00, 0x04, 0x00, 0x00, 0x00,
  0x01, 0x00, 0x00, 0x00, 0x00, 0x00, 0x0e, 0x00, 0x16, 0x00, 0x00, 0x00,
  0x10, 0x00, 0x0c, 0x00, 0x0b, 0x00, 0x04, 0x00, 0x0e, 0x00, 0x00, 0x00,
  0x18, 0x00, 0x00, 0x00, 0x00, 0x00, 0x00, 0x08, 0x18, 0x00, 0x00, 0x00,
  0x1c, 0x00, 0x00, 0x00, 0x00, 0x00, 0x06, 0x00, 0x08, 0x00, 0x07, 0x00,
  0x06, 0x00, 0x00, 0x00, 0x00, 0x00, 0x00, 0x01, 0x01, 0x00, 0x00, 0x00,
  0x07, 0x00, 0x00, 0x00, 0x03, 0x00, 0x00, 0x00, 0x00, 0x00, 0x00, 0x00,
  0x05, 0x00, 0x00, 0x00, 0x06, 0x00, 0x00, 0x00, 0x01, 0x00, 0x00, 0x00,
  0x0a, 0x00, 0x00, 0x00, 0x01, 0x00, 0x00, 0x00, 0x00, 0x00, 0x00, 0x00,
  0x0b, 0x00, 0x00, 0x00, 0x44, 0x04, 0x00, 0x00, 0xc4, 0x03, 0x00, 0x00,
  0x60, 0x03, 0x00, 0x00, 0x10, 0x03, 0x00, 0x00, 0xc0, 0x02, 0x00, 0x00,
  0x74, 0x02, 0x00, 0x00, 0x10, 0x02, 0x00, 0x00, 0x7c, 0x01, 0x00, 0x00,
  0xe0, 0x00, 0x00, 0x00, 0x60, 0x00, 0x00, 0x00, 0x04, 0x00, 0x00, 0x00,
  0xfe, 0xfb, 0xff, 0xff, 0x00, 0x00, 0x00, 0x01, 0x14, 0x00, 0x00, 0x00,
  0x1c, 0x00, 0x00, 0x00, 0x1c, 0x00, 0x00, 0x00, 0x0b, 0x00, 0x00, 0x00,
  0x34, 0x00, 0x00, 0x00, 0x02, 0x00, 0x00, 0x00, 0xff, 0xff, 0xff, 0xff,
  0x04, 0x00, 0x00, 0x00, 0xe8, 0xfb, 0xff, 0xff, 0x1b, 0x00, 0x00, 0x00,
  0x53, 0x74, 0x61, 0x74, 0x65, 0x66, 0x75, 0x6c, 0x50, 0x61, 0x72, 0x74,
  0x69, 0x74, 0x69, 0x6f, 0x6e, 0x65, 0x64, 0x43, 0x61, 0x6c, 0x6c, 0x5f,
  0x31, 0x3a, 0x30, 0x00, 0x02, 0x00, 0x00, 0x00, 0x01, 0x00, 0x00, 0x00,
  0x04, 0x00, 0x00, 0x00, 0x56, 0xfc, 0xff, 0xff, 0x00, 0x00, 0x00, 0x01,
  0x14, 0x00, 0x00, 0x00, 0x1c, 0x00, 0x00, 0x00, 0x1c, 0x00, 0x00, 0x00,
  0x0a, 0x00, 0x00, 0x00, 0x58, 0x00, 0x00, 0x00, 0x02, 0x00, 0x00, 0x00,
  0xff, 0xff, 0xff, 0xff, 0x04, 0x00, 0x00, 0x00, 0x40, 0xfc, 0xff, 0xff,
  0x3c, 0x00, 0x00, 0x00, 0x73, 0x65, 0x71, 0x75, 0x65, 0x6e, 0x74, 0x69,
  0x61, 0x6c, 0x5f, 0x31, 0x2f, 0x64, 0x65, 0x6e, 0x73, 0x65, 0x5f, 0x32,
  0x5f, 0x31, 0x2f, 0x4d, 0x61, 0x74, 0x4d, 0x75, 0x6c, 0x3b, 0x73, 0x65,
  0x71, 0x75, 0x65, 0x6e, 0x74, 0x69, 0x61, 0x6c, 0x5f, 0x31, 0x2f, 0x64,
  0x65, 0x6e, 0x73, 0x65, 0x5f, 0x32, 0x5f, 0x31, 0x2f, 0x42, 0x69, 0x61,
  0x73, 0x41, 0x64, 0x64, 0x00, 0x00, 0x00, 0x00, 0x02, 0x00, 0x00, 0x00,
  0x01, 0x00, 0x00, 0x00, 0x04, 0x00, 0x00, 0x00, 0xd2, 0xfc, 0xff, 0xff,
  0x00, 0x00, 0x00, 0x01, 0x14, 0x00, 0x00, 0x00, 0x1c, 0x00, 0x00, 0x00,
  0x1c, 0x00, 0x00, 0x00, 0x09, 0x00, 0x00, 0x00, 0x74, 0x00, 0x00, 0x00,
  0x02, 0x00, 0x00, 0x00, 0xff, 0xff, 0xff, 0xff, 0x08, 0x00, 0x00, 0x00,
  0xbc, 0xfc, 0xff, 0xff, 0x58, 0x00, 0x00, 0x00, 0x73, 0x65, 0x71, 0x75,
  0x65, 0x6e, 0x74, 0x69, 0x61, 0x6c, 0x5f, 0x31, 0x2f, 0x64, 0x65, 0x6e,
  0x73, 0x65, 0x5f, 0x31, 0x5f, 0x32, 0x2f, 0x4d, 0x61, 0x74, 0x4d, 0x75,
  0x6c, 0x3b, 0x73, 0x65, 0x71, 0x75, 0x65, 0x6e, 0x74, 0x69, 0x61, 0x6c,
  0x5f, 0x31, 0x2f, 0x64, 0x65, 0x6e, 0x73, 0x65, 0x5f, 0x31, 0x5f, 0x32,
  0x2f, 0x52, 0x65, 0x6c, 0x75, 0x3b, 0x73, 0x65, 0x71, 0x75, 0x65, 0x6e,
  0x74, 0x69, 0x61, 0x6c, 0x5f, 0x31, 0x2f, 0x64, 0x65, 0x6e, 0x73, 0x65,
  0x5f, 0x31, 0x5f, 0x32, 0x2f, 0x42, 0x69, 0x61, 0x73, 0x41, 0x64, 0x64,
  0x00, 0x00, 0x00, 0x00, 0x02, 0x00, 0x00, 0x00, 0x01, 0x00, 0x00, 0x00,
  0x08, 0x00, 0x00, 0x00, 0x6a, 0xfd, 0xff, 0xff, 0x00, 0x00, 0x00, 0x01,
  0x14, 0x00, 0x00, 0x00, 0x1c, 0x00, 0x00, 0x00, 0x1c, 0x00, 0x00, 0x00,
  0x08, 0x00, 0x00, 0x00, 0x6c, 0x00, 0x00, 0x00, 0x02, 0x00, 0x00, 0x00,
  0xff, 0xff, 0xff, 0xff, 0x10, 0x00, 0x00, 0x00, 0x54, 0xfd, 0xff, 0xff,
  0x52, 0x00, 0x00, 0x00, 0x73, 0x65, 0x71, 0x75, 0x65, 0x6e, 0x74, 0x69,
  0x61, 0x6c, 0x5f, 0x31, 0x2f, 0x64, 0x65, 0x6e, 0x73, 0x65, 0x5f, 0x31,
  0x2f, 0x4d, 0x61, 0x74, 0x4d, 0x75, 0x6c, 0x3b, 0x73, 0x65, 0x71, 0x75,
  0x65, 0x6e, 0x74, 0x69, 0x61, 0x6c, 0x5f, 0x31, 0x2f, 0x64, 0x65, 0x6e,
  0x73, 0x65, 0x5f, 0x31, 0x2f, 0x52, 0x65, 0x6c, 0x75, 0x3b, 0x73, 0x65,
  0x71, 0x75, 0x65, 0x6e, 0x74, 0x69, 0x61, 0x6c, 0x5f, 0x31, 0x2f, 0x64,
  0x65, 0x6e, 0x73, 0x65, 0x5f, 0x31, 0x2f, 0x42, 0x69, 0x61, 0x73, 0x41,
  0x64, 0x64, 0x00, 0x00, 0x02, 0x00, 0x00, 0x00, 0x01, 0x00, 0x00, 0x00,
  0x10, 0x00, 0x00, 0x00, 0x76, 0xfe, 0xff, 0xff, 0x00, 0x00, 0x00, 0x01,
  0x10, 0x00, 0x00, 0x00, 0x10, 0x00, 0x00, 0x00, 0x07, 0x00, 0x00, 0x00,
  0x44, 0x00, 0x00, 0x00, 0xd4, 0xfd, 0xff, 0xff, 0x36, 0x00, 0x00, 0x00,
  0x73, 0x65, 0x71, 0x75, 0x65, 0x6e, 0x74, 0x69, 0x61, 0x6c, 0x5f, 0x31,
  0x2f, 0x64, 0x65, 0x6e, 0x73, 0x65, 0x5f, 0x31, 0x2f, 0x52, 0x65, 0x6c,
  0x75, 0x3b, 0x73, 0x65, 0x71, 0x75, 0x65, 0x6e, 0x74, 0x69, 0x61, 0x6c,
  0x5f, 0x31, 0x2f, 0x64, 0x65, 0x6e, 0x73, 0x65, 0x5f, 0x31, 0x2f, 0x42,
  0x69, 0x61, 0x73, 0x41, 0x64, 0x64, 0x00, 0x00, 0x01, 0x00, 0x00, 0x00,
  0x10, 0x00, 0x00, 0x00, 0xd6, 0xfe, 0xff, 0xff, 0x00, 0x00, 0x00, 0x01,
  0x10, 0x00, 0x00, 0x00, 0x10, 0x00, 0x00, 0x00, 0x06, 0x00, 0x00, 0x00,
  0x28, 0x00, 0x00, 0x00, 0x34, 0xfe, 0xff, 0xff, 0x1b, 0x00, 0x00, 0x00,
  0x73, 0x65, 0x71, 0x75, 0x65, 0x6e, 0x74, 0x69, 0x61, 0x6c, 0x5f, 0x31,
  0x2f, 0x64, 0x65, 0x6e, 0x73, 0x65, 0x5f, 0x31, 0x2f, 0x4d, 0x61, 0x74,
  0x4d, 0x75, 0x6c, 0x00, 0x02, 0x00, 0x00, 0x00, 0x10, 0x00, 0x00, 0x00,
  0x03, 0x00, 0x00, 0x00, 0x1e, 0xff, 0xff, 0xff, 0x00, 0x00, 0x00, 0x01,
  0x10, 0x00, 0x00, 0x00, 0x10, 0x00, 0x00, 0x00, 0x05, 0x00, 0x00, 0x00,
  0x2c, 0x00, 0x00, 0x00, 0x7c, 0xfe, 0xff, 0xff, 0x1d, 0x00, 0x00, 0x00,
  0x73, 0x65, 0x71, 0x75, 0x65, 0x6e, 0x74, 0x69, 0x61, 0x6c, 0x5f, 0x31,
  0x2f, 0x64, 0x65, 0x6e, 0x73, 0x65, 0x5f, 0x31, 0x5f, 0x32, 0x2f, 0x4d,
  0x61, 0x74, 0x4d, 0x75, 0x6c, 0x00, 0x00, 0x00, 0x02, 0x00, 0x00, 0x00,
  0x08, 0x00, 0x00, 0x00, 0x10, 0x00, 0x00, 0x00, 0x6a, 0xff, 0xff, 0xff,
  0x00, 0x00, 0x00, 0x01, 0x10, 0x00, 0x00, 0x00, 0x10, 0x00, 0x00, 0x00,
  0x04, 0x00, 0x00, 0x00, 0x2c, 0x00, 0x00, 0x00, 0xc8, 0xfe, 0xff, 0xff,
  0x1d, 0x00, 0x00, 0x00, 0x73, 0x65, 0x71, 0x75, 0x65, 0x6e, 0x74, 0x69,
  0x61, 0x6c, 0x5f, 0x31, 0x2f, 0x64, 0x65, 0x6e, 0x73, 0x65, 0x5f, 0x32,
  0x5f, 0x31, 0x2f, 0x4d, 0x61, 0x74, 0x4d, 0x75, 0x6c, 0x00, 0x00, 0x00,
  0x02, 0x00, 0x00, 0x00, 0x04, 0x00, 0x00, 0x00, 0x08, 0x00, 0x00, 0x00,
  0xb6, 0xff, 0xff, 0xff, 0x00, 0x00, 0x00, 0x01, 0x10, 0x00, 0x00, 0x00,
  0x10, 0x00, 0x00, 0x00, 0x03, 0x00, 0x00, 0x00, 0x2c, 0x00, 0x00, 0x00,
  0x14, 0xff, 0xff, 0xff, 0x1e, 0x00, 0x00, 0x00, 0x73, 0x65, 0x71, 0x75,
  0x65, 0x6e, 0x74, 0x69, 0x61, 0x6c, 0x5f, 0x31, 0x2f, 0x64, 0x65, 0x6e,
  0x73, 0x65, 0x5f, 0x32, 0x5f, 0x31, 0x2f, 0x42, 0x69, 0x61, 0x73, 0x41,
  0x64, 0x64, 0x00, 0x00, 0x01, 0x00, 0x00, 0x00, 0x04, 0x00, 0x00, 0x00,
  0x00, 0x00, 0x16, 0x00, 0x18, 0x00, 0x14, 0x00, 0x00, 0x00, 0x10, 0x00,
  0x0c, 0x00, 0x08, 0x00, 0x00, 0x00, 0x00, 0x00, 0x00, 0x00, 0x07, 0x00,
  0x16, 0x00, 0x00, 0x00, 0x00, 0x00, 0x00, 0x01, 0x10, 0x00, 0x00, 0x00,
  0x10, 0x00, 0x00, 0x00, 0x02, 0x00, 0x00, 0x00, 0x48, 0x00, 0x00, 0x00,
  0x74, 0xff, 0xff, 0xff, 0x3a, 0x00, 0x00, 0x00, 0x73, 0x65, 0x71, 0x75,
  0x65, 0x6e, 0x74, 0x69, 0x61, 0x6c, 0x5f, 0x31, 0x2f, 0x64, 0x65, 0x6e,
  0x73, 0x65, 0x5f, 0x31, 0x5f, 0x32, 0x2f, 0x52, 0x65, 0x6c, 0x75, 0x3b,
  0x73, 0x65, 0x71, 0x75, 0x65, 0x6e, 0x74, 0x69, 0x61, 0x6c, 0x5f, 0x31,
  0x2f, 0x64, 0x65, 0x6e, 0x73, 0x65, 0x5f, 0x31, 0x5f, 0x32, 0x2f, 0x42,
  0x69, 0x61, 0x73, 0x41, 0x64, 0x64, 0x00, 0x00, 0x01, 0x00, 0x00, 0x00,
  0x08, 0x00, 0x00, 0x00, 0x00, 0x00, 0x16, 0x00, 0x1c, 0x00, 0x18, 0x00,
  0x00, 0x00, 0x14, 0x00, 0x10, 0x00, 0x0c, 0x00, 0x00, 0x00, 0x00, 0x00,
  0x08, 0x00, 0x07, 0x00, 0x16, 0x00, 0x00, 0x00, 0x00, 0x00, 0x00, 0x01,
  0x14, 0x00, 0x00, 0x00, 0x20, 0x00, 0x00, 0x00, 0x20, 0x00, 0x00, 0x00,
  0x01, 0x00, 0x00, 0x00, 0x3c, 0x00, 0x00, 0x00, 0x02, 0x00, 0x00, 0x00,
  0xff, 0xff, 0xff, 0xff, 0x03, 0x00, 0x00, 0x00, 0x04, 0x00, 0x04, 0x00,
  0x04, 0x00, 0x00, 0x00, 0x1e, 0x00, 0x00, 0x00, 0x73, 0x65, 0x72, 0x76,
  0x69, 0x6e, 0x67, 0x5f, 0x64, 0x65, 0x66, 0x61, 0x75, 0x6c, 0x74, 0x5f,
  0x6b, 0x65, 0x72, 0x61, 0x73, 0x5f, 0x74, 0x65, 0x6e, 0x73, 0x6f, 0x72,
  0x3a, 0x30, 0x00, 0x00, 0x02, 0x00, 0x00, 0x00, 0x01, 0x00, 0x00, 0x00,
  0x03, 0x00, 0x00, 0x00, 0x02, 0x00, 0x00, 0x00, 0x20, 0x00, 0x00, 0x00,
  0x04, 0x00, 0x00, 0x00, 0xf4, 0xff, 0xff, 0xff, 0x19, 0x00, 0x00, 0x00,
  0x00, 0x00, 0x00, 0x19, 0x0c, 0x00, 0x0c, 0x00, 0x0b, 0x00, 0x00, 0x00,
  0x00, 0x00, 0x04, 0x00, 0x0c, 0x00, 0x00, 0x00, 0x09, 0x00, 0x00, 0x00,
  0x00, 0x00, 0x00, 0x09
};
